{
  "version": "1.0",
  "truncation": null,
  "padding": null,
  "added_tokens": [
    {
      "id": 0,
      "content": "<UNK>",
      "single_word": false,
      "lstrip": false,
      "rstrip": false,
      "normalized": false,
      "special": true
    },
    {
      "id": 1,
      "content": "<PAD>",
      "single_word": false,
      "lstrip": false,
      "rstrip": false,
      "normalized": false,
      "special": true
    },
    {
      "id": 2,
      "content": "<CLS>",
      "single_word": false,
      "lstrip": false,
      "rstrip": false,
      "normalized": false,
      "special": true
    },
    {
      "id": 3,
      "content": "<SEP>",
      "single_word": false,
      "lstrip": false,
      "rstrip": false,
      "normalized": false,
      "special": true
    }
  ],
  "normalizer": null,
  "pre_tokenizer": null,
  "post_processor": null,
  "decoder": null,
  "model": {
    "type": "BPE",
    "dropout": null,
    "unk_token": "<UNK>",
    "continuing_subword_prefix": "##",
    "end_of_word_suffix": null,
    "fuse_unk": false,
    "byte_fallback": false,
    "ignore_merges": false,
    "vocab": {
      "<UNK>": 0,
      "<PAD>": 1,
      "<CLS>": 2,
      "<SEP>": 3,
      " ": 4,
      "'": 5,
      "_": 6,
      "a": 7,
      "b": 8,
      "c": 9,
      "d": 10,
      "f": 11,
      "g": 12,
      "h": 13,
      "i": 14,
      "j": 15,
      "k": 16,
      "l": 17,
      "m": 18,
      "n": 19,
      "o": 20,
      "r": 21,
      "s": 22,
      "t": 23,
      "u": 24,
      "w": 25,
      "y": 26,
      "ƙ": 27,
      "## ": 28,
      "##y": 29,
      "##a": 30,
      "##k": 31,
      "##w": 32,
      "##_": 33,
      "##m": 34,
      "##u": 35,
      "##b": 36,
      "##n": 37,
      "##t": 38,
      "##i": 39,
      "##d": 40,
      "##g": 41,
      "##r": 42,
      "##s": 43,
      "##o": 44,
      "##c": 45,
      "##l": 46,
      "##ƙ": 47,
      "##f": 48,
      "##h": 49,
      "##j": 50,
      "##'": 51,
      "## a": 52,
      "## a ": 53,
      "##_ ": 54,
      "## _ ": 55,
      "## a _ ": 56,
      "##i _ ": 57,
      "##k ": 58,
      "##y a ": 59,
      "##m a ": 60,
      "## n": 61,
      "##k y a ": 62,
      "## i _ ": 63,
      "##m ": 64,
      "## i": 65,
      "##m u": 66,
      "##m a i _ ": 67,
      "##d a ": 68,
      "## n _ ": 69,
      "##k a ": 70,
      "##u _ ": 71,
      "##b a ": 72,
      "##n a _ ": 73,
      "##b a _ ": 74,
      "## i n _ ": 75,
      "##i ": 76,
      "##m u n": 77,
      "##l ": 78,
      "##k y a u _ ": 79,
      "##d a _ ": 80,
      "##n ": 81,
      "##b a n ": 82,
      "##g a ": 83,
      "##d a d": 84,
      "##k y a w": 85,
      "##o ": 86,
      "##k o ": 87,
      "##s ": 88,
      "##f i _ ": 89,
      "## a k a ": 90,
      "##i c": 91,
      "## a k a i c": 92,
      "##m a t": 93,
      "##_ a ": 94,
      "##m u ": 95,
      "##m a f i _ ": 96,
      "##d a d i _ ": 97,
      "##n a ": 98,
      "## a k a i c i _ ": 99,
      "m a ": 100,
      "## y a ": 101,
      "##m a _ ": 102,
      "##m u n i _ ": 103,
      "##u ": 104,
      "##g a r": 105,
      "##i d a ": 106,
      "## a _ k a ": 107,
      "##h i n _ ": 108,
      "##j i n _ ": 109,
      "## a s ": 110,
      "##h i n _ j i n _ ": 111,
      "## a s h i n _ j i n _ ": 112,
      "##ƙ y a ": 113,
      "##m b a n ": 114,
      "##b a m b a n ": 115,
      "##b a n ƙ y a ": 116,
      "##b a m b a n t": 117,
      "##k k y a w": 118,
      "## a n": 119,
      "##k y a w a n": 120,
      "## s": 121,
      "## d a _ ": 122,
      "##y a _ k a ": 123,
      "##b i n _ ": 124,
      "##d d a _ ": 125,
      "##r _ ": 126,
      "##k u ": 127,
      "##y a u _ ": 128,
      "##y a d d a _ ": 129,
      "##m a r _ ": 130,
      "##l u": 131,
      "##l l u": 132,
      "##d a _ k u ": 133,
      "##y a _ k a m a t": 134,
      "##b i n _ t": 135,
      "##y a u _ d a _ k u ": 136,
      "##y a d d a _ y a _ k a m a t": 137,
      "##m a r _ y a d d a _ y a _ k a m a t": 138,
      "##y a u _ d a _ k u l l u": 139,
      "##k o w": 140,
      "## a _ s ": 141,
      "## n a _ s ": 142,
      "m a i _ ": 143,
      "## n a _ s o": 144,
      "##m m u n": 145,
      "##g a r i _ ": 146,
      "##' a ": 147,
      "##d a i d a ": 148,
      "##l ' a ": 149,
      "##_ a l ' a ": 150,
      "##r a s h i n _ j i n _ ": 151,
      "##n a _ k y a ": 152,
      "##m u b a m b a n t": 153,
      "##k k y a w a _ ": 154,
      "##k y a k y a w a n": 155,
      "##y a u _ d a _ k u l l u n _ ": 156,
      "##b a _ k y a u _ ": 157,
      "##k o m a i _ ": 158,
      "## s a k a i c i _ ": 159,
      "##m a i _ b a n ƙ y a ": 160,
      "##n a _ g a ": 161,
      "##n a _ k o w": 162,
      "n a _ ": 163,
      "##i n a _ s o": 164,
      "##m u m m u n": 165,
      "##_ a b i n _ t": 166,
      "##m a r _ y a d d a _ y a _ k a m a t a _ ": 167,
      "##n a _ a l ' a ": 168,
      "##m a i _ k y a u _ ": 169,
      "##d a i d a i _ ": 170,
      "##k y a k y a w a n _ ": 171,
      "##m a t s a k a i c i _ ": 172,
      "##n a g a r i _ ": 173,
      "##m u b a m b a n t a _ ": 174,
      "##k y a k k y a w a _ ": 175,
      "##m a i _ d a d i _ ": 176,
      "##b a _ k o m a i _ ": 177,
      "##i n a _ s o _ ": 178,
      "##n a _ y a u _ d a _ k u l l u n _ ": 179,
      "##m a f i _ k y a u _ ": 180,
      "##m u n i": 181,
      "##r a s h i n _ j i n _ d a d i _ ": 182,
      "##n a _ k y a m a _ ": 183,
      "##n a _ g a b a _ ": 184,
      "##b a _ k y a u _ b a _ ": 185,
      "##m a f i _ m u n i _ ": 186,
      "##m a i _ m u n i _ ": 187,
      "##n a _ k o w a _ ": 188,
      "##m u m m u n a _ ": 189,
      "##m a": 190,
      "##_ a b i n _ t a k a i c i _ ": 191,
      "##m a i _ b a n ƙ y a m a _ ": 192,
      "##d a d i": 193,
      "##k y a u": 194,
      "n a ": 195,
      "##n a _ a l ' a d a _ ": 196,
      "## a k a i c i": 197,
      "##b a": 198,
      "##k a m a r _ y a d d a _ y a _ k a m a t a _ ": 199,
      "k y a ": 200,
      "m a f i _ ": 201,
      "b a _ ": 202,
      "m ": 203,
      "m u ": 204,
      "##r a s h i n _ j i n _ d a d i": 205,
      "##m a i _ m u n i": 206,
      "## _ a b i n _ t a k a i c i _ ": 207,
      "##m a i _ b a n ƙ y a m a": 208,
      "##m a i _ k y a u": 209,
      "n a g a r i _ ": 210,
      "m a i _ b a n ƙ y a ": 211,
      "##_ a b i n _ t a k a i c i": 212,
      "##m a f i _ m u n i": 213,
      "##d a": 214,
      "##d a i d a i": 215,
      "n a _ y a u _ d a _ k u l l u n _ ": 216,
      "##n a _ a l ' a d a": 217,
      "m a i _ b a n ƙ y a m a _ ": 218,
      "m a i _ k y a u _ ": 219,
      "k y a k k y a w a _ ": 220,
      "d a ": 221,
      "##i d a i _ ": 222,
      "##n a _ k y a m a": 223,
      "##m u b a m b a n t a": 224,
      "##n a _ g a b a": 225,
      "d a i d a i _ ": 226,
      "a ": 227,
      "##n a g a r": 228,
      "a b i n _ t": 229,
      "##n a g a r i": 230,
      "k a ": 231,
      "##k a m a r _ y a d d a _ y a _ k a m a t": 232,
      "b a _ k o m a i _ ": 233,
      "##m a i": 234,
      "##b a _ k o ": 235,
      "m a i _ d a d i _ ": 236,
      "k a m a r _ y a d d a _ y a _ k a m a t a _ ": 237,
      "##b a _ k o m a i": 238,
      "r a s h i n _ j i n _ ": 239,
      "##m a f i _ k y a u": 240,
      "##n a _ k o w a": 241,
      "a b i n _ t a k a i c i _ ": 242,
      "##b a m b a n t a _ ": 243,
      "##_ a l ' a d a _ ": 244,
      "n a _ a l ' a d a _ ": 245,
      "m u b a m b a n t a _ ": 246,
      "r a s h i n _ j i n _ d a d i _ ": 247,
      "m a i _ m u n i _ ": 248,
      "##b a _ k y a u _ b a": 249,
      "n a _ k y a ": 250,
      "m a f i _ k y a u _ ": 251,
      "##t s a k a i c i _ ": 252,
      "##g a b a _ ": 253,
      "m a t s a k a i c i _ ": 254,
      "n a _ g a b a _ ": 255,
      "##m u m m u n a": 256,
      "m a f i _ m u n i _ ": 257,
      "##k y a k k y a w": 258,
      "##m a i _ d a d i": 259,
      "##k y a w a n _ ": 260,
      "n a _ k o w": 261,
      "k y a k y a w a n _ ": 262,
      "b a _ k y a u _ ": 263,
      "##k y a k k y a w a": 264,
      "##m a t s": 265,
      "##m a t s a k a i c i": 266,
      "##k a m a r _ y a d d a _ y a _ k a m a t a": 267,
      "n a _ k y a m a _ ": 268,
      "n a _ k o w a _ ": 269,
      "b a _ k y a u _ b a _ ": 270,
      "m u m m u n": 271,
      "i n a _ s o": 272,
      "##n a _ y a u _ d a _ k u l l u": 273,
      "i n a _ s o _ ": 274,
      "##n a _ y a u _ d a _ k u l l u n": 275,
      "## _ a b i n _ t a k a i c i": 276,
      "m u m m u n a _ ": 277,
      "##m a _ a b i n _ t a k a i c i _ ": 278,
      "## a _ k a m a r _ y a d d a _ y a _ k a m a t a _ ": 279,
      "##b a _ k y a u _ b a ": 280,
      "##m u b a m b a n t a _ k y a k k y a w a _ ": 281,
      "##n a g a r i _ m u b a m b a n t a _ ": 282,
      "##m a i _ d a d i _ m a i _ k y a u _ ": 283,
      "##m u m m u n a _ b a _ k y a u _ b a _ ": 284,
      "##m a i _ k y a u _ k y a k k y a w a _ ": 285,
      "##n a _ y a u _ d a _ k u l l u n _ b a _ k o m a i _ ": 286,
      "##n a _ k o w a _ m a t s a k a i c i _ ": 287,
      "##i n a _ s o _ k y a k y a w a n _ ": 288,
      "##i n a _ s o _ m a f i _ k y a u _ ": 289,
      "##m a f i _ m u n i _ b a _ k y a u _ b a _ ": 290,
      "##d a i d a i _ d a i d a i _ ": 291,
      "##d a i d a i _ b a _ k o m a i _ ": 292,
      "##d a i d a i _ n a _ g a b a _ ": 293,
      "##n a g a r i _ k y a k k y a w a _ ": 294,
      "##m a f i _ k y a u _ m a i _ d a d i _ ": 295,
      "##r a s h i n _ j i n _ d a d i _ r a s h i n _ j i n _ d a d i _ ": 296,
      "##m a i _ m u n i _ n a _ k y a m a _ ": 297,
      "##m u m m u n a ": 298,
      "##m a i _ k y a u _ k y a k y a w a n _ ": 299,
      "##i n a _ s o _ m a i _ d a d i _ ": 300,
      "##n a _ y a u _ d a _ k u l l u n _ d a i d a i _ ": 301,
      "##n a _ g a b a _ b a _ k o m a i _ ": 302,
      "##m a i _ b a n ƙ y a m a _ n a _ k y a m a _ ": 303,
      "##n a _ k y a m a _ a b i n _ t a k a i c i _ ": 304,
      "##k y a k y a w a n _ m a i _ d a d i _ ": 305,
      "##m a t s a k a i c i _ m a t s a k a i c i _ ": 306,
      "##i n a _ s o _ k y a k k y a w a _ ": 307,
      "##i n a _ s o _ i n a _ s o _ ": 308,
      "##m a f i _ m u n i _ m a i _ b a n ƙ y a m a": 309,
      "##n a g a r i _ m a i _ k y a u": 310,
      "##n a _ g a b a _ n a _ k o w a _ ": 311,
      "##k a m a r _ y a d d a _ y a _ k a m a t a _ n a _ y a u _ d a _ k u l l u n _ ": 312,
      "##m a f i _ m u n i _ a b i n _ t a k a i c i _ ": 313,
      "##m a i _ k y a u _ m a i _ k y a u _ ": 314,
      "##d a i d a i _ m a t s a k a i c i _ ": 315,
      "##d a i d a i _ k a m a r _ y a d d a _ y a _ k a m a t a _ ": 316,
      "##m a f i _ k y a u _ k y a k y a w a n _ ": 317,
      "##m a f i _ m u n i _ r a s h i n _ j i n _ d a d i": 318,
      "##n a _ k o w a _ n a _ k o w a _ ": 319,
      "##m a i _ b a n ƙ y a m a _ m a i _ b a n ƙ y a m a _ ": 320,
      "##k a m a r _ y a d d a _ y a _ k a m a t a _ n a _ a l ' a d a _ ": 321,
      "n a g a r i _ k y a k y a w a n _ ": 322,
      "n a _ y a u _ d a _ k u l l u n _ m a t s a k a i c i _ ": 323,
      "k y a k k y a w a _ k y a k y a w a n _ ": 324,
      "##n a _ k o w a _ k a m a r _ y a d d a _ y a _ k a m a t a _ ": 325,
      "##d a i d a i _ n a _ y a u _ d a _ k u l l u n _ ": 326,
      "##n a g a r i _ k y a k y a w a n _ ": 327,
      "##m u b a m b a n t a _ m a i _ d a d i _ ": 328,
      "##m u b a m b a n t a _ m a f i _ k y a u _ ": 329,
      "##m a f i _ k y a u _ k y a k k y a w a _ ": 330,
      "##m u n i _ a b i n _ t a k a i c i _ ": 331,
      "##r a s h i n _ j i n _ d a d i _ n a _ k y a m a _ ": 332,
      "##r a s h i n _ j i n _ d a d i _ m u m m u n a _ ": 333,
      "##r a s h i n _ j i n _ d a d i _ m a i _ b a n ƙ y a m a": 334,
      "##n a _ k y a m a _ m a i _ m u n i": 335,
      "##n a _ g a b a _ n a _ y a u _ d a _ k u l l u n _ ": 336,
      "##n a _ g a b a _ n a _ a l ' a d a": 337,
      "##m a i _ m u n i _ m a i _ b a n ƙ y a m a _ ": 338,
      "##m a i _ m u n i _ n a _ k y a m a": 339,
      "##r a s h i n _ j i n _ d a d i _ a b i n _ t a k a i c i _ ": 340,
      "b a _ k o m a i _ n a _ y a u _ d a _ k u l l u n _ ": 341,
      "m a t s a k a i c i _ n a _ y a u _ d a _ k u l l u n _ ": 342,
      "##b a _ k y a u _ b a _ a b i n _ t a k a i c i _ ": 343,
      "##b a _ k y a u _ b a _ a b i n _ t a k a i c i": 344,
      "##m u m m u n a _ a b i n _ t a k a i c i _ ": 345,
      "##m a _ a b i n _ t a k a i c i": 346,
      "## a _ k a m a r _ y a d d a _ y a _ k a m a t": 347,
      "##k y a k y a w a n _ k y a k k y a w a _ ": 348,
      "##m a t s a k a i c i _ b a _ k o m a i _ ": 349,
      "##n a g a r i _ m u b a m b a n t a": 350,
      "##m u b a m b a n t a _ k y a k y a w a n": 351,
      "##m a f i _ m u n i _ n a _ k y a m a _ ": 352,
      "##m a i _ m u n i _ m a i _ m u n i _ ": 353,
      "##k a m a r _ y a d d a _ y a _ k a m a t a _ b a _ k o m a i _ ": 354,
      "##r a s h i n _ j i n _ d a d i _ a b i n _ t a k a i c i": 355,
      "##m a i _ m u n i _ a b i n _ t a k a i c i _ ": 356,
      "##m a i _ k y a u _ n a g a r i": 357,
      "##m a t s a k a i c i _ n a _ a l ' a d a": 358,
      "##n a g a r i _ m a i _ d a d i _ ": 359,
      "##n a g a r i _ m a i _ d a d i": 360,
      "##n a g a r i _ k y a k k y a w a": 361,
      "##m u b a m b a n t a _ i n a _ s o _ ": 362,
      "##r a s h i n _ j i n _ d a d i _ b a _ k y a u _ b a _ ": 363,
      "##n a _ k y a m a _ m u m m u n a _ ": 364,
      "##n a _ g a b a _ n a _ a l ' a d a _ ": 365,
      "##b a _ k y a u _ b a _ m a i _ m u n i": 366,
      "##m a f i _ m u n i _ m u m m u n a _ ": 367,
      "##m a f i _ m u n i _ n a _ k y a m a": 368,
      "##n a _ k o w a _ n a _ a l ' a d a _ ": 369,
      "##m a i _ b a n ƙ y a m a _ r a s h i n _ j i n _ d a d i": 370,
      "##n a _ a l ' a d a _ m a t s a k a i c i": 371,
      "n a g a r i _ m a i _ d a d i _ ": 372,
      "##k a m a r _ y a d d a _ y a _ k a m a t a _ k a m a r _ y a d d a _ y a _ k a m a t a _ ": 373,
      "k a m a r _ y a d d a _ y a _ k a m a t a _ b a _ k o m a i _ ": 374,
      "m u b a m b a n t a _ k y a k k y a w a _ ": 375,
      "n a _ g a b a _ m a t s a k a i c i _ ": 376,
      "##m a i _ b a n ƙ y a m a _ a b i n _ t a k a i c i _ ": 377,
      "##m a i _ k y a u _ i n a _ s o _ ": 378,
      "##d a i d a i _ n a _ a l ' a d a": 379,
      "##n a g a r i _ m a f i _ k y a u": 380,
      "##m u b a m b a n t a _ m u b a m b a n t a": 381,
      "##b a _ k o m a i _ n a _ g a b a _ ": 382,
      "##m a f i _ k y a u _ k y a k y a w a n": 383,
      "##m a f i _ k y a u _ m a f i _ k y a u _ ": 384,
      "##r a s h i n _ j i n _ d a d i _ m a i _ m u n i": 385,
      "##n a _ k y a m a _ b a _ k y a u _ b a": 386,
      "##b a _ k y a u _ b a _ m u m m u n a _ ": 387,
      "##m a f i _ m u n i _ m a f i _ m u n i": 388,
      "##m a i _ m u n i _ m u m m u n a _ ": 389,
      "##m a i _ m u n i _ r a s h i n _ j i n _ d a d i": 390,
      "##m a i _ m u n i _ m a i _ m u n i": 391,
      "##m a i _ m u n i _ m a f i _ m u n i": 392,
      "##n a _ k o w a _ b a _ k o m a i _ ": 393,
      "##n a _ k o w a _ b a _ k o m a i": 394,
      "n a _ y a u _ d a _ k u l l u n _ k a m a r _ y a d d a _ y a _ k a m a t a _ ": 395,
      "m a i _ k y a u _ m a i _ d a d i _ ": 396,
      "m a i _ k y a u _ m a f i _ k y a u _ ": 397,
      "d a i d a i _ b a _ k o m a i _ ": 398,
      "b a _ k o m a i _ m a t s a k a i c i _ ": 399,
      "m a i _ d a d i _ k y a k y a w a n _ ": 400,
      "k a m a r _ y a d d a _ y a _ k a m a t a _ n a _ g a b a _ ": 401,
      "a b i n _ t a k a i c i _ b a _ k y a u _ b a _ ": 402,
      "r a s h i n _ j i n _ d a d i _ m a f i _ m u n i _ ": 403,
      "m a f i _ m u n i _ m a i _ b a n ƙ y a m a _ ": 404,
      "k y a k y a w a n _ m a i _ k y a u _ ": 405,
      "n a _ k y a m a _ r a s h i n _ j i n _ d a d i _ ": 406,
      "n a _ k o w a _ b a _ k o m a i _ ": 407,
      "## a _ k a m a r _ y a d d a _ y a _ k a m a t a": 408,
      "m a i _ m u n i _ a b i n _ t a k a i c i _ ": 409,
      "##d a i d a i _ n a _ k o w a": 410,
      "##m a t s a k a i c i _ n a _ g a b a": 411,
      "##n a g a r i _ m a i _ k y a u _ ": 412,
      "##n a g a r i _ n a g a r i": 413,
      "##m u b a m b a n t a _ m a i _ k y a u _ ": 414,
      "##m u b a m b a n t a _ k y a k y a w a n _ ": 415,
      "##m u b a m b a n t a _ m a i _ k y a u": 416,
      "##m u b a m b a n t a _ m a i _ d a d i": 417,
      "##i n a _ s o _ m a f i _ k y a u": 418,
      "##n a _ y a u _ d a _ k u l l u n _ n a _ a l ' a d a _ ": 419,
      "##n a _ y a u _ d a _ k u l l u n _ k a m a r _ y a d d a _ y a _ k a m a t a": 420,
      "##r a s h i n _ j i n _ d a d i _ m u m m u n a": 421,
      "##n a _ g a b a _ d a i d a i": 422,
      "##b a _ k y a u _ b a _ n a _ k y a m a": 423,
      "##m a i _ m u n i _ b a _ k y a u _ b a _ ": 424,
      "##n a _ k o w a _ n a _ g a b a": 425,
      "##n a _ k o w a _ n a _ k o w a _ m a t s a k a i c i _ ": 426,
      "##m u m m u n a _ n a _ k y a m a _ ": 427,
      "##m u m m u n a _ n a _ k y a m a": 428,
      "##m u m m u n a _ m u m m u n a": 429,
      "##m a i _ b a n ƙ y a m a _ m a f i _ m u n i": 430,
      "##m a i _ b a n ƙ y a m a _ n a _ k y a m a": 431,
      "##n a _ a l ' a d a _ n a _ a l ' a d a": 432,
      "n a g a r i _ k y a k k y a w a _ ": 433,
      "m a i _ b a n ƙ y a m a _ n a _ k y a m a _ ": 434,
      "m a i _ b a n ƙ y a m a _ b a _ k y a u _ b a _ ": 435,
      "d a i d a i _ n a _ a l ' a d a _ ": 436,
      "a b i n _ t a k a i c i": 437,
      "b a _ k o m a i _ k a m a r _ y a d d a _ y a _ k a m a t a _ ": 438,
      "m a i _ d a d i _ k y a k k y a w a _ ": 439,
      "a b i n _ t a k a i c i _ m a f i _ m u n i _ ": 440,
      "m a i _ m u n i _ r a s h i n _ j i n _ d a d i _ ": 441,
      "m a f i _ k y a u _ k y a k k y a w a _ ": 442,
      "m a t s a k a i c i _ b a _ k o m a i _ ": 443,
      "k y a k y a w a n _ m a i _ d a d i _ ": 444,
      "m u m m u n a ": 445,
      "## _ a b i n _ t a k a i c i _ a b i n _ t a k a i c i _ ": 446,
      "##m a i _ b a n ƙ y a m a _ a b i n _ t a k a i c i": 447,
      "##n a _ k o w a _ k a m a r _ y a d d a _ y a _ k a m a t a": 448,
      "##m a i _ k y a u _ k y a k y a w a n": 449,
      "##m a i _ k y a u _ i n a _ s o": 450,
      "##m a i _ k y a u _ m a f i _ k y a u": 451,
      "##d a i d a i _ n a _ a l ' a d a _ ": 452,
      "##d a i d a i _ n a _ g a b a": 453,
      "##d a i d a i _ m a t s a k a i c i": 454,
      "##k y a k y a w a n _ m a i _ d a d i": 455,
      "##m a t s a k a i c i _ n a _ y a u _ d a _ k u l l u n _ ": 456,
      "##m a t s a k a i c i _ n a _ a l ' a d a _ ": 457,
      "##m u b a m b a n t a _ n a g a r i": 458,
      "##m u b a m b a n t a _ m a f i _ k y a u": 459,
      "##m a i _ d a d i _ m a i _ k y a u": 460,
      "##b a _ k o m a i _ k a m a r _ y a d d a _ y a _ k a m a t a _ ": 461,
      "##i n a _ s o _ m u b a m b a n t a": 462,
      "##m a f i _ k y a u _ m a i _ k y a u": 463,
      "##m a f i _ k y a u _ m a f i _ k y a u": 464,
      "##r a s h i n _ j i n _ d a d i _ m a f i _ m u n i": 465,
      "##r a s h i n _ j i n _ d a d i _ m a i _ b a n ƙ y a m a _ n a _ k y a m a _ ": 466,
      "##n a _ g a b a _ n a _ g a b a": 467,
      "##n a _ g a b a _ n a _ k o w a": 468,
      "##n a _ g a b a _ k a m a r _ y a d d a _ y a _ k a m a t a": 469,
      "##b a _ k y a u _ b a _ m a f i _ m u n i": 470,
      "##m a f i _ m u n i _ b a _ k y a u _ b a": 471,
      "##m a i _ m u n i _ m a i _ b a n ƙ y a m a": 472,
      "##n a _ k o w a _ n a _ g a b a _ ": 473,
      "##n a _ k o w a _ n a _ a l ' a d a": 474,
      "##m u m m u n a _ b a _ k y a u _ b a": 475,
      "##n a _ a l ' a d a _ n a _ k o w a": 476,
      "m a f i _ m u n i _ a b i n _ t a k a i c i _ ": 477,
      "n a g a r i _ m a i _ k y a u _ ": 478,
      "##_ a b i n _ t a k a i c i _ a b i n _ t a k a i c i _ ": 479,
      "n a _ y a u _ d a _ k u l l u n _ b a _ k o m a i _ ": 480,
      "n a _ y a u _ d a _ k u l l u n _ n a _ a l ' a d a _ ": 481,
      "m a i _ k y a u _ k y a k k y a w a _ ": 482,
      "k y a k k y a w a _ k y a k k y a w a _ ": 483,
      "d a i d a i _ n a _ y a u _ d a _ k u l l u n _ ": 484,
      "d a i d a i _ k a m a r _ y a d d a _ y a _ k a m a t a _ ": 485,
      "a b i n _ t a k a i c i _ m u m m u n a _ ": 486,
      "n a _ a l ' a d a _ d a i d a i _ b a _ k o m a i _ ": 487,
      "m u b a m b a n t a _ m a f i _ k y a u _ ": 488,
      "r a s h i n _ j i n _ d a d i _ b a _ k y a u _ b a _ ": 489,
      "m a i _ m u n i _ m a i _ b a n ƙ y a m a _ ": 490,
      "n a _ k y a m a _ a b i n _ t a k a i c i _ ": 491,
      "m a f i _ k y a u _ n a g a r i _ ": 492,
      "m a f i _ m u n i _ n a _ k y a m a _ ": 493,
      "m a f i _ m u n i _ b a _ k y a u _ b a _ ": 494,
      "k y a k y a w a n _ k y a k k y a w a _ ": 495,
      "b a _ k y a u _ b a _ n a _ k y a m a _ ": 496,
      "i n a _ s o _ n a g a r i _ ": 497,
      "i n a _ s o _ m a i _ d a d i _ ": 498,
      "m u m m u n a _ m a f i _ m u n i _ ": 499,
      "##n a _ k y a m a _ a b i n _ t a k a i c i _ m u m m u n a": 500,
      "##n a _ k o w a _ n a _ k o w a _ d a i d a i": 501,
      "a b i n _ t a k a i c i _ a b i n _ t a k a i c i _ ": 502,
      "##n a _ k y a m a _ a b i n _ t a k a i c i": 503,
      "##d a i d a i _ d a i d a i": 504,
      "##d a i d a i _ n a _ y a u _ d a _ k u l l u n": 505,
      "##k y a k y a w a n _ n a g a r i _ ": 506,
      "##m a t s a k a i c i _ n a _ k o w a": 507,
      "##m a t s a k a i c i _ n a _ k o w a _ k a m a r _ y a d d a _ y a _ k a m a t a _ ": 508,
      "##m u b a m b a n t a _ m u b a m b a n t a _ ": 509,
      "##k y a k k y a w a _ k y a k k y a w a": 510,
      "##m a i _ d a d i _ m u b a m b a n t a": 511,
      "##m a i _ d a d i _ n a g a r i": 512,
      "##b a _ k o m a i _ d a i d a i": 513,
      "##b a _ k o m a i _ k a m a r _ y a d d a _ y a _ k a m a t a": 514,
      "##i n a _ s o _ i n a _ s o": 515,
      "##i n a _ s o _ m a i _ k y a u": 516,
      "##i n a _ s o _ k y a k k y a w a": 517,
      "##n a _ y a u _ d a _ k u l l u n _ n a _ y a u _ d a _ k u l l u n _ ": 518,
      "##n a _ y a u _ d a _ k u l l u n _ d a i d a i": 519,
      "##n a _ y a u _ d a _ k u l l u n _ n a _ a l ' a d a": 520,
      "##m a f i _ k y a u _ n a g a r i": 521,
      "##r a s h i n _ j i n _ d a d i _ b a _ k y a u _ b a": 522,
      "##r a s h i n _ j i n _ d a d i _ m a i _ b a n ƙ y a m a _ r a s h i n _ j i n _ d a d i": 523,
      "##n a _ k y a m a _ m a f i _ m u n i _ m a i _ b a n ƙ y a m a": 524,
      "##n a _ g a b a _ k a m a r _ y a d d a _ y a _ k a m a t a _ ": 525,
      "##n a _ g a b a _ n a _ g a b a _ n a _ y a u _ d a _ k u l l u n _ ": 526,
      "##b a _ k y a u _ b a _ m a i _ b a n ƙ y a m a _ ": 527,
      "##b a _ k y a u _ b a _ b a _ k y a u _ b a": 528,
      "##b a _ k y a u _ b a _ m u m m u n a": 529,
      "##m a f i _ m u n i _ m a i _ m u n i": 530,
      "##m a i _ m u n i _ m a f i _ m u n i _ n a _ k y a m a": 531,
      "##n a _ k o w a _ n a _ k o w a": 532,
      "##n a _ k o w a _ m a t s a k a i c i": 533,
      "##m u m m u n a _ r a s h i n _ j i n _ d a d i": 534,
      "##m a i _ b a n ƙ y a m a _ r a s h i n _ j i n _ d a d i _ ": 535,
      "##m a i _ b a n ƙ y a m a _ b a _ k y a u _ b a": 536,
      "##n a _ a l ' a d a _ d a i d a i": 537,
      "##n a _ a l ' a d a _ n a _ g a b a": 538,
      "##k a m a r _ y a d d a _ y a _ k a m a t a _ b a _ k o m a i": 539,
      "##m a i _ m u n i _ a b i n _ t a k a i c i": 540,
      "n a g a r i _ n a g a r i _ ": 541,
      "n a g a r i _ m a i _ d a d i _ m a i _ k y a u _ ": 542,
      "n a _ y a u _ d a _ k u l l u n _ n a _ y a u _ d a _ k u l l u n _ ": 543,
      "m a i _ b a n ƙ y a m a _ m a f i _ m u n i _ ": 544,
      "m a i _ b a n ƙ y a m a _ m u m m u n a _ ": 545,
      "m a i _ b a n ƙ y a m a _ m a i _ b a n ƙ y a m a _ ": 546,
      "m a i _ k y a u _ k y a k y a w a n _ m a i _ d a d i _ ": 547,
      "k y a k k y a w a _ m u b a m b a n t a _ ": 548,
      "k y a k k y a w a _ m u b a m b a n t a _ k y a k k y a w a _ ": 549,
      "k y a k k y a w a _ m a i _ d a d i _ m a i _ k y a u _ ": 550,
      "m a i _ d a d i _ m a i _ k y a u _ ": 551,
      "k a m a r _ y a d d a _ y a _ k a m a t a _ n a _ k o w a _ ": 552,
      "k a m a r _ y a d d a _ y a _ k a m a t a _ d a i d a i _ n a _ g a b a _ ": 553,
      "k a m a r _ y a d d a _ y a _ k a m a t a _ m a t s a k a i c i _ m a t s a k a i c i _ ": 554,
      "a b i n _ t a k a i c i _ m a i _ m u n i _ ": 555,
      "n a _ a l ' a d a _ b a _ k o m a i _ ": 556,
      "m u b a m b a n t a _ m u b a m b a n t a _ ": 557,
      "m a i _ m u n i _ m a f i _ m u n i _ ": 558,
      "m a f i _ k y a u _ k y a k y a w a n _ ": 559,
      "m a f i _ k y a u _ m u b a m b a n t a _ ": 560,
      "m a t s a k a i c i _ n a _ a l ' a d a _ ": 561,
      "n a _ g a b a _ k a m a r _ y a d d a _ y a _ k a m a t a _ ": 562,
      "n a _ k o w a _ k a m a r _ y a d d a _ y a _ k a m a t a _ ": 563,
      "b a _ k y a u _ b a ": 564,
      "n a _ k y a m a _ n a _ k y a m a _ ": 565,
      "n a _ k y a m a _ m a i _ m u n i _ ": 566,
      "n a _ k y a m a _ m u m m u n a _ ": 567,
      "n a _ k o w a _ n a _ a l ' a d a _ ": 568,
      "b a _ k y a u _ b a _ m u m m u n a _ ": 569,
      "m u m m u n a _ r a s h i n _ j i n _ d a d i _ ": 570,
      "##m a i _ k y a u _ k y a k k y a w a _ n a g a r i": 571,
      "##i n a _ s o _ m a f i _ k y a u _ m a f i _ k y a u _ ": 572,
      "##d a i d a i _ n a _ g a b a _ d a i d a i": 573,
      "##n a g a r i _ k y a k k y a w a _ m a i _ k y a u": 574,
      "##r a s h i n _ j i n _ d a d i _ r a s h i n _ j i n _ d a d i _ m u m m u n a _ ": 575,
      "##m u m m u n a _ a b i n _ t a k a i c i": 576,
      "##m a i _ k y a u _ k y a k y a w a n _ k y a k y a w a n _ ": 577,
      "##i n a _ s o _ m a i _ d a d i _ k y a k k y a w a": 578,
      "##n a _ y a u _ d a _ k u l l u n _ d a i d a i _ b a _ k o m a i": 579,
      "##m a i _ b a n ƙ y a m a _ n a _ k y a m a _ m a i _ b a n ƙ y a m a": 580,
      "##k a m a r _ y a d d a _ y a _ k a m a t a _ n a _ y a u _ d a _ k u l l u n _ k a m a r _ y a d d a _ y a _ k a m a t a": 581,
      "##d a i d a i _ m a t s a k a i c i _ n a _ y a u _ d a _ k u l l u n": 582,
      "##d a i d a i _ k a m a r _ y a d d a _ y a _ k a m a t a _ n a _ k o w a": 583,
      "##r a s h i n _ j i n _ d a d i _ a b i n _ t a k a i c i _ m a i _ m u n i": 584,
      "##n a g a r i _ m a i _ d a d i _ m a i _ d a d i": 585,
      "##m a i _ k y a u _ m u b a m b a n t a _ ": 586,
      "##m a i _ k y a u _ m a i _ k y a u": 587,
      "##m a i _ k y a u _ m u b a m b a n t a": 588,
      "##m a i _ k y a u _ k y a k k y a w a": 589,
      "##m a i _ k y a u _ m a f i _ k y a u _ m a i _ d a d i _ ": 590,
      "##m a i _ k y a u _ n a g a r i _ k y a k y a w a n _ ": 591,
      "##d a i d a i _ n a _ k o w a _ ": 592,
      "##k y a k y a w a n _ m u b a m b a n t a": 593,
      "##k y a k y a w a n _ n a g a r i": 594,
      "##k y a k y a w a n _ m a i _ d a d i _ m a i _ k y a u _ ": 595,
      "##k y a k y a w a n _ k y a k y a w a n _ m a i _ d a d i": 596,
      "##k y a k y a w a n _ m u b a m b a n t a _ m u b a m b a n t a _ ": 597,
      "##m a t s a k a i c i _ m a t s a k a i c i": 598,
      "##m a t s a k a i c i _ k a m a r _ y a d d a _ y a _ k a m a t a": 599,
      "##m a t s a k a i c i _ n a _ g a b a _ n a _ k o w a _ ": 600,
      "##m a t s a k a i c i _ n a _ g a b a _ k a m a r _ y a d d a _ y a _ k a m a t a": 601,
      "##n a g a r i _ k y a k y a w a n": 602,
      "##n a g a r i _ n a g a r i _ m u b a m b a n t a _ ": 603,
      "##n a g a r i _ n a g a r i _ k y a k k y a w a _ ": 604,
      "##n a g a r i _ i n a _ s o _ i n a _ s o _ ": 605,
      "##n a g a r i _ m a f i _ k y a u _ k y a k k y a w a _ ": 606,
      "##m u b a m b a n t a _ i n a _ s o": 607,
      "##k y a k k y a w a _ m a i _ k y a u": 608,
      "##k y a k k y a w a _ m u b a m b a n t a": 609,
      "##m a i _ d a d i _ k y a k y a w a n": 610,
      "##m a i _ d a d i _ i n a _ s o": 611,
      "##b a _ k o m a i _ n a _ g a b a": 612,
      "##b a _ k o m a i _ b a _ k o m a i": 613,
      "##i n a _ s o _ n a g a r i _ ": 614,
      "##i n a _ s o _ m a i _ d a d i": 615,
      "##i n a _ s o _ m a i _ k y a u _ k y a k y a w a n _ k y a k y a w a n _ ": 616,
      "##n a _ y a u _ d a _ k u l l u n _ b a _ k o m a i": 617,
      "##m a f i _ k y a u _ m u b a m b a n t a": 618,
      "##m a f i _ k y a u _ k y a k k y a w a": 619,
      "##m a f i _ k y a u _ n a g a r i _ m u b a m b a n t a _ ": 620,
      "##m u n i _ a b i n _ t a k a i c i _ a b i n _ t a k a i c i _ ": 621,
      "##r a s h i n _ j i n _ d a d i _ m a i _ b a n ƙ y a m a _ ": 622,
      "##r a s h i n _ j i n _ d a d i _ n a _ k y a m a": 623,
      "##n a _ k y a m a _ m a i _ m u n i _ ": 624,
      "##n a _ k y a m a _ r a s h i n _ j i n _ d a d i": 625,
      "##n a _ k y a m a _ m u m m u n a": 626,
      "##n a _ k y a m a _ r a s h i n _ j i n _ d a d i _ m a i _ b a n ƙ y a m a": 627,
      "##n a _ k y a m a _ n a _ k y a m a _ m a f i _ m u n i _ m a i _ b a n ƙ y a m a": 628,
      "##n a _ g a b a _ n a _ y a u _ d a _ k u l l u n": 629,
      "##n a _ g a b a _ m a t s a k a i c i _ n a _ y a u _ d a _ k u l l u n _ ": 630,
      "##b a _ k y a u _ b a _ m a i _ b a n ƙ y a m a": 631,
      "##b a _ k y a u _ b a _ n a _ k y a m a _ m a i _ m u n i": 632,
      "##m a f i _ m u n i _ m a i _ b a n ƙ y a m a _ ": 633,
      "##m a f i _ m u n i _ m u m m u n a": 634,
      "##m a f i _ m u n i _ m a i _ m u n i _ n a _ k y a m a _ ": 635,
      "##m a f i _ m u n i _ m a f i _ m u n i _ m a i _ b a n ƙ y a m a": 636,
      "##m a i _ m u n i _ m u m m u n a": 637,
      "##m a i _ m u n i _ b a _ k y a u _ b a _ m a i _ m u n i": 638,
      "##n a _ k o w a _ d a i d a i _ ": 639,
      "##n a _ k o w a _ n a _ y a u _ d a _ k u l l u n _ ": 640,
      "##n a _ k o w a _ d a i d a i _ d a i d a i _ ": 641,
      "##m u m m u n a _ m a f i _ m u n i": 642,
      "##m u m m u n a _ m a i _ m u n i _ m a f i _ m u n i": 643,
      "##_ a b i n _ t a k a i c i _ m u m m u n a _ b a _ k y a u _ b a _ ": 644,
      "##m a i _ b a n ƙ y a m a _ m a f i _ m u n i _ ": 645,
      "##m a i _ b a n ƙ y a m a _ m a i _ b a n ƙ y a m a": 646,
      "##m a i _ b a n ƙ y a m a _ m u m m u n a": 647,
      "##n a _ a l ' a d a _ b a _ k o m a i": 648,
      "##n a _ a l ' a d a _ b a _ k o m a i _ k a m a r _ y a d d a _ y a _ k a m a t a": 649,
      "##k a m a r _ y a d d a _ y a _ k a m a t a _ m a t s a k a i c i _ ": 650,
      "##k a m a r _ y a d d a _ y a _ k a m a t a _ d a i d a i": 651,
      "##k a m a r _ y a d d a _ y a _ k a m a t a _ m a t s a k a i c i": 652,
      "##k a m a r _ y a d d a _ y a _ k a m a t a _ n a _ y a u _ d a _ k u l l u n": 653,
      "## _ a b i n _ t a k a i c i _ m u m m u n a": 654,
      "n a g a r i _ i n a _ s o _ k y a k y a w a n _ ": 655,
      "n a g a r i _ i n a _ s o _ k y a k k y a w a _ ": 656,
      "n a g a r i _ m a i _ k y a u _ m a i _ k y a u _ ": 657,
      "n a g a r i _ n a g a r i _ k y a k y a w a n _ ": 658,
      "n a g a r i _ m a i _ k y a u _ i n a _ s o _ ": 659,
      "m a i _ b a n ƙ y a m a _ a b i n _ t a k a i c i _ ": 660,
      "##m a f i _ m u n i _ a b i n _ t a k a i c i": 661,
      "m a i _ b a n ƙ y a m a _ r a s h i n _ j i n _ d a d i _ a b i n _ t a k a i c i": 662,
      "m a i _ k y a u _ m a f i _ k y a u _ m a i _ d a d i _ ": 663,
      "m a i _ k y a u _ i n a _ s o _ i n a _ s o _ ": 664,
      "m a i _ k y a u _ m u b a m b a n t a _ i n a _ s o _ ": 665,
      "k y a k k y a w a _ n a g a r i _ m u b a m b a n t a _ ": 666,
      "k y a k k y a w a _ m u b a m b a n t a _ m a i _ d a d i _ ": 667,
      "d a i d a i _ n a _ g a b a _ b a _ k o m a i _ ": 668,
      "d a i d a i _ n a _ g a b a _ n a _ k o w a _ ": 669,
      "d a i d a i _ d a i d a i _ n a _ a l ' a d a": 670,
      "d a i d a i _ n a _ k o w a _ b a _ k o m a i": 671,
      "b a _ k o m a i _ n a _ a l ' a d a _ ": 672,
      "b a _ k o m a i _ n a _ g a b a _ b a _ k o m a i _ ": 673,
      "m a i _ d a d i _ m u b a m b a n t a _ ": 674,
      "m a i _ d a d i _ m a i _ d a d i _ ": 675,
      "m a i _ d a d i _ m a i _ k y a u _ k y a k y a w a n _ ": 676,
      "m a i _ d a d i _ m u b a m b a n t a _ m a i _ d a d i _ ": 677,
      "m a i _ d a d i _ m a f i _ k y a u _ k y a k k y a w a _ ": 678,
      "k a m a r _ y a d d a _ y a _ k a m a t a _ n a _ y a u _ d a _ k u l l u n _ b a _ k o m a i _ ": 679,
      "k a m a r _ y a d d a _ y a _ k a m a t a _ n a _ y a u _ d a _ k u l l u n _ d a i d a i _ ": 680,
      "k a m a r _ y a d d a _ y a _ k a m a t a _ n a _ a l ' a d a _ n a _ k o w a": 681,
      "a b i n _ t a k a i c i _ m a i _ b a n ƙ y a m a _ ": 682,
      "a b i n _ t a k a i c i _ m u m m u n a _ b a _ k y a u _ b a _ ": 683,
      "a b i n _ t a k a i c i _ r a s h i n _ j i n _ d a d i _ a b i n _ t a k a i c i _ ": 684,
      "a b i n _ t a k a i c i _ m a f i _ m u n i _ n a _ k y a m a _ ": 685,
      "n a _ a l ' a d a _ n a _ y a u _ d a _ k u l l u n _ ": 686,
      "n a _ a l ' a d a _ n a _ y a u _ d a _ k u l l u n _ b a _ k o m a i _ ": 687,
      "n a _ a l ' a d a _ m a t s a k a i c i _ m a t s a k a i c i _ ": 688,
      "n a _ a l ' a d a _ k a m a r _ y a d d a _ y a _ k a m a t a _ n a _ a l ' a d a _ ": 689,
      "n a _ a l ' a d a _ m a t s a k a i c i _ n a _ a l ' a d a _ ": 690,
      "m u b a m b a n t a _ m a i _ k y a u _ ": 691,
      "m u b a m b a n t a _ k y a k y a w a n _ ": 692,
      "m u b a m b a n t a _ m a i _ d a d i _ ": 693,
      "m u b a m b a n t a _ m a i _ k y a u _ m a i _ k y a u _ ": 694,
      "m u b a m b a n t a _ m a f i _ k y a u _ k y a k y a w a n _ ": 695,
      "m u b a m b a n t a _ m a f i _ k y a u _ k y a k k y a w a _ ": 696,
      "m u b a m b a n t a _ m a f i _ k y a u _ m a f i _ k y a u _ ": 697,
      "r a s h i n _ j i n _ d a d i _ m a i _ m u n i _ ": 698,
      "r a s h i n _ j i n _ d a d i _ m u m m u n a _ b a _ k y a u _ b a _ ": 699,
      "r a s h i n _ j i n _ d a d i _ m a f i _ m u n i _ a b i n _ t a k a i c i _ ": 700,
      "m a i _ m u n i _ r a s h i n _ j i n _ d a d i _ r a s h i n _ j i n _ d a d i _ ": 701,
      "m a i _ m u n i _ m a i _ b a n ƙ y a m a _ n a _ k y a m a _ ": 702,
      "m a i _ m u n i _ m a i _ m u n i _ m a i _ b a n ƙ y a m a _ ": 703,
      "m a i _ m u n i _ b a _ k y a u _ b a _ m u m m u n a _ ": 704,
      "m a i _ m u n i _ b a _ k y a u _ b a _ m a i _ b a n ƙ y a m a _ ": 705,
      "m a f i _ k y a u _ m a f i _ k y a u _ ": 706,
      "m a f i _ k y a u _ m u b a m b a n t a _ k y a k k y a w a _ ": 707,
      "m a t s a k a i c i _ m a t s a k a i c i _ ": 708,
      "m a t s a k a i c i _ n a _ y a u _ d a _ k u l l u n _ d a i d a i _ ": 709,
      "m a t s a k a i c i _ k a m a r _ y a d d a _ y a _ k a m a t a _ n a _ a l ' a d a _ ": 710,
      "n a _ g a b a _ n a _ k o w a _ ": 711,
      "n a _ g a b a _ n a _ a l ' a d a _ ": 712,
      "n a _ g a b a _ n a _ y a u _ d a _ k u l l u n _ b a _ k o m a i _ ": 713,
      "n a _ g a b a _ d a i d a i _ d a i d a i _ ": 714,
      "n a _ g a b a _ n a _ g a b a _ n a _ k o w a": 715,
      "m a f i _ m u n i _ n a _ k y a m a _ a b i n _ t a k a i c i _ ": 716,
      "m a f i _ m u n i _ m a f i _ m u n i _ r a s h i n _ j i n _ d a d i": 717,
      "k y a k y a w a n _ n a g a r i _ k y a k y a w a n _ ": 718,
      "n a _ k y a m a _ b a _ k y a u _ b a _ ": 719,
      "n a _ k y a m a _ m a i _ b a n ƙ y a m a _ ": 720,
      "n a _ k o w a _ d a i d a i _ ": 721,
      "n a _ k o w a _ m a t s a k a i c i _ ": 722,
      "n a _ k o w a _ n a _ g a b a _ b a _ k o m a i _ ": 723,
      "n a _ k o w a _ d a i d a i _ n a _ y a u _ d a _ k u l l u n _ ": 724,
      "b a _ k y a u _ b a _ b a _ k y a u _ b a _ ": 725,
      "b a _ k y a u _ b a _ m u m m u n a _ a b i n _ t a k a i c i _ ": 726,
      "b a _ k y a u _ b a _ b a _ k y a u _ b a _ m a i _ m u n i": 727,
      "b a _ k y a u _ b a _ m a i _ m u n i _ r a s h i n _ j i n _ d a d i": 728,
      "i n a _ s o _ m a f i _ k y a u _ ": 729,
      "i n a _ s o _ m a i _ k y a u _ k y a k k y a w a _ ": 730,
      "i n a _ s o _ k y a k y a w a n _ m a i _ d a d i _ ": 731,
      "m u m m u n a _ n a _ k y a m a _ ": 732,
      "m u m m u n a _ m u m m u n a _ n a _ k y a m a _ ": 733,
      "##m u b a m b a n t a _ k y a k k y a w a _ n a g a r i": 734,
      "##n a g a r i _ m u b a m b a n t a _ n a g a r i": 735,
      "##m a i _ d a d i _ m a i _ k y a u _ n a g a r i": 736,
      "##m a i _ k y a u _ k y a k k y a w a _ m u b a m b a n t a": 737,
      "##n a _ y a u _ d a _ k u l l u n _ b a _ k o m a i _ n a _ a l ' a d a _ m a t s a k a i c i": 738,
      "##n a _ k o w a _ m a t s a k a i c i _ m a t s a k a i c i": 739,
      "##i n a _ s o _ k y a k y a w a n _ i n a _ s o": 740,
      "##i n a _ s o _ k y a k y a w a n _ m a i _ k y a u": 741,
      "##m a f i _ m u n i _ b a _ k y a u _ b a _ b a _ k y a u _ b a": 742,
      "##d a i d a i _ d a i d a i _ n a _ k o w a": 743,
      "##d a i d a i _ b a _ k o m a i _ d a i d a i": 744,
      "##d a i d a i _ b a _ k o m a i _ b a _ k o m a i": 745,
      "##d a i d a i _ n a _ g a b a _ b a _ k o m a i": 746,
      "##r a s h i n _ j i n _ d a d i _ r a s h i n _ j i n _ d a d i _ m a i _ b a n ƙ y a m a": 747,
      "##m a i _ k y a u _ k y a k y a w a n _ k y a k k y a w a": 748,
      "##i n a _ s o _ m a i _ d a d i _ m a f i _ k y a u _ ": 749,
      "##n a _ g a b a _ b a _ k o m a i _ n a _ g a b a": 750,
      "##n a _ k y a m a _ a b i n _ t a k a i c i _ n a _ k y a m a": 751,
      "##k y a k y a w a n _ m a i _ d a d i _ n a g a r i": 752,
      "##i n a _ s o _ k y a k k y a w a _ k y a k y a w a n": 753,
      "##i n a _ s o _ k y a k k y a w a _ m a i _ d a d i _ ": 754,
      "##k a m a r _ y a d d a _ y a _ k a m a t a _ n a _ y a u _ d a _ k u l l u n _ n a _ k o w a": 755,
      "##m a f i _ k y a u _ k y a k y a w a n _ m a f i _ k y a u": 756,
      "##m a i _ b a n ƙ y a m a _ m a i _ b a n ƙ y a m a _ m u m m u n a": 757,
      "##k a m a r _ y a d d a _ y a _ k a m a t a _ n a _ a l ' a d a _ n a _ k o w a": 758,
      "n a _ y a u _ d a _ k u l l u n _ m a t s a k a i c i _ n a _ g a b a": 759,
      "k y a k k y a w a _ k y a k y a w a n _ m a f i _ k y a u": 760,
      "##n a _ k o w a _ k a m a r _ y a d d a _ y a _ k a m a t a _ m a t s a k a i c i _ m a t s a k a i c i _ ": 761,
      "##d a i d a i _ n a _ y a u _ d a _ k u l l u n _ n a _ g a b a": 762,
      "##m u b a m b a n t a _ m a f i _ k y a u _ m a f i _ k y a u": 763,
      "##r a s h i n _ j i n _ d a d i _ n a _ k y a m a _ b a _ k y a u _ b a": 764,
      "##n a _ k y a m a _ m a i _ m u n i _ a b i n _ t a k a i c i": 765,
      "m a t s a k a i c i _ n a _ y a u _ d a _ k u l l u n _ d a i d a i": 766,
      "##b a _ k y a u _ b a _ a b i n _ t a k a i c i _ r a s h i n _ j i n _ d a d i _ m a i _ b a n ƙ y a m a": 767,
      "##b a _ k y a u _ b a _ a b i n _ t a k a i c i _ a b i n _ t a k a i c i _ ": 768,
      "##k y a k y a w a n _ k y a k k y a w a _ m a f i _ k y a u": 769,
      "##m a i _ m u n i _ m a i _ m u n i _ m a i _ b a n ƙ y a m a": 770,
      "##m a i _ m u n i _ m a i _ m u n i _ m u m m u n a": 771,
      "##k a m a r _ y a d d a _ y a _ k a m a t a _ b a _ k o m a i _ n a _ a l ' a d a": 772,
      "##n a _ k o w a _ n a _ a l ' a d a _ n a _ g a b a": 773,
      "##n a _ k o w a _ n a _ a l ' a d a _ k a m a r _ y a d d a _ y a _ k a m a t a": 774,
      "##k a m a r _ y a d d a _ y a _ k a m a t a _ k a m a r _ y a d d a _ y a _ k a m a t a _ n a _ g a b a": 775,
      "k a m a r _ y a d d a _ y a _ k a m a t a _ b a _ k o m a i _ b a _ k o m a i": 776,
      "k a m a r _ y a d d a _ y a _ k a m a t a _ b a _ k o m a i _ k a m a r _ y a d d a _ y a _ k a m a t a _ m a t s a k a i c i _ ": 777,
      "n a _ g a b a _ m a t s a k a i c i _ d a i d a i": 778,
      "##b a _ k o m a i _ n a _ g a b a _ b a _ k o m a i": 779,
      "##n a g a r i _ m a i _ k y a u _ k y a k k y a w a": 780,
      "##m a i _ b a n ƙ y a m a _ m a f i _ m u n i _ a b i n _ t a k a i c i": 781,
      "m u m m u n a _ a b i n _ t a k a i c i _ a b i n _ t a k a i c i _ ": 782,
      "m u b a m b a n t a _ m a f i _ k y a u _ i n a _ s o _ k y a k y a w a n _ ": 783,
      "n a _ k y a m a _ a b i n _ t a k a i c i _ m a i _ m u n i _ m a i _ b a n ƙ y a m a _ ": 784,
      "##m a i _ b a n ƙ y a m a _ r a s h i n _ j i n _ d a d i _ r a s h i n _ j i n _ d a d i": 785,
      "m a i _ k y a u _ k y a k y a w a n _ m a i _ d a d i _ i n a _ s o": 786,
      "a b i n _ t a k a i c i _ m a i _ m u n i _ r a s h i n _ j i n _ d a d i _ m a i _ b a n ƙ y a m a _ n a _ k y a m a _ ": 787,
      "##m a t s a k a i c i _ n a _ g a b a _ n a _ k o w a _ n a _ y a u _ d a _ k u l l u n": 788,
      "m a i _ k y a u _ m a f i _ k y a u _ m a i _ d a d i _ m a i _ d a d i _ m u b a m b a n t a": 789,
      "##m a r _ y a d d a _ y a _ k a m a t a _ k a m a r _ y a d d a _ y a _ k a m a t a _ ": 790,
      "m a i _ m u n i _ a b i n _ t a k a i c i _ a b i n _ t a k a i c i _ ": 791,
      "##n a _ k o w a _ k a m a r _ y a d d a _ y a _ k a m a t": 792,
      "##m a i _ k y a u _ m a i _ d a d i _ ": 793,
      "##m a i _ k y a u _ n a g a r i _ m u b a m b a n t a _ ": 794,
      "##m a i _ k y a u _ m a i _ d a d i _ m a i _ k y a u _ ": 795,
      "##m a i _ k y a u _ i n a _ s o _ i n a _ s o _ ": 796,
      "##m a i _ k y a u _ n a g a r i _ m u b a m b a n t a": 797,
      "##m a i _ k y a u _ n a g a r i _ k y a k k y a w a": 798,
      "##m a i _ k y a u _ m a f i _ k y a u _ m a f i _ k y a u _ ": 799,
      "##m a i _ k y a u _ m a i _ d a d i _ n a g a r i": 800,
      "##m a i _ k y a u _ i n a _ s o _ m a f i _ k y a u _ m a f i _ k y a u _ ": 801,
      "##d a i d a i _ k a m a r _ y a d d a _ y a _ k a m a t a": 802,
      "##d a i d a i _ n a _ y a u _ d a _ k u l l u n _ b a _ k o m a i _ ": 803,
      "##d a i d a i _ n a _ k o w a _ k a m a r _ y a d d a _ y a _ k a m a t a": 804,
      "##k y a k y a w a n _ i n a _ s o": 805,
      "##k y a k y a w a n _ k y a k y a w a n _ ": 806,
      "##k y a k y a w a n _ m a i _ k y a u": 807,
      "##k y a k y a w a n _ m a f i _ k y a u": 808,
      "##k y a k y a w a n _ k y a k k y a w a": 809,
      "##k y a k y a w a n _ i n a _ s o _ m a f i _ k y a u _ ": 810,
      "##k y a k y a w a n _ k y a k y a w a n _ m a i _ d a d i _ ": 811,
      "##k y a k y a w a n _ n a g a r i _ m u b a m b a n t a": 812,
      "##k y a k y a w a n _ m a i _ k y a u _ n a g a r i": 813,
      "##k y a k y a w a n _ i n a _ s o _ m a i _ d a d i _ k y a k k y a w a": 814,
      "##m a t s a k a i c i _ n a _ k o w a _ m a t s a k a i c i _ ": 815,
      "##m a t s a k a i c i _ d a i d a i _ n a _ g a b a _ ": 816,
      "##m a t s a k a i c i _ k a m a r _ y a d d a _ y a _ k a m a t a _ n a _ y a u _ d a _ k u l l u n _ ": 817,
      "##m a t s a k a i c i _ n a _ g a b a _ n a _ a l ' a d a _ ": 818,
      "##m a t s a k a i c i _ n a _ a l ' a d a _ m a t s a k a i c i": 819,
      "##m a t s a k a i c i _ n a _ k o w a _ b a _ k o m a i _ ": 820,
      "##m a t s a k a i c i _ n a _ k o w a _ n a _ a l ' a d a": 821,
      "##m a t s a k a i c i _ d a i d a i _ n a _ g a b a _ d a i d a i": 822,
      "##m a t s a k a i c i _ d a i d a i _ n a _ k o w a _ ": 823,
      "##m a t s a k a i c i _ k a m a r _ y a d d a _ y a _ k a m a t a _ d a i d a i": 824,
      "##m a t s a k a i c i _ k a m a r _ y a d d a _ y a _ k a m a t a _ n a _ a l ' a d a _ n a _ k o w a": 825,
      "##n a g a r i _ i n a _ s o": 826,
      "##n a g a r i _ n a g a r i _ ": 827,
      "##n a g a r i _ m a f i _ k y a u _ m a i _ d a d i _ ": 828,
      "##n a g a r i _ n a g a r i _ k y a k y a w a n _ ": 829,
      "##n a g a r i _ n a g a r i _ m u b a m b a n t a": 830,
      "##n a g a r i _ n a g a r i _ m a i _ k y a u _ ": 831,
      "##n a g a r i _ i n a _ s o _ m u b a m b a n t a": 832,
      "##n a g a r i _ n a g a r i _ k y a k y a w a n": 833,
      "##n a g a r i _ i n a _ s o _ k y a k k y a w a _ m a i _ d a d i _ ": 834,
      "##m u b a m b a n t a _ m a f i _ k y a u _ m a i _ d a d i _ ": 835,
      "##m u b a m b a n t a _ m a i _ k y a u _ k y a k y a w a n _ ": 836,
      "##m u b a m b a n t a _ n a g a r i _ m a i _ k y a u": 837,
      "##m u b a m b a n t a _ m u b a m b a n t a _ k y a k y a w a n": 838,
      "##m u b a m b a n t a _ n a g a r i _ m a i _ d a d i": 839,
      "##m u b a m b a n t a _ m u b a m b a n t a _ i n a _ s o _ ": 840,
      "##m u b a m b a n t a _ m u b a m b a n t a _ m u b a m b a n t a": 841,
      "##m u b a m b a n t a _ i n a _ s o _ m a i _ d a d i _ k y a k k y a w a": 842,
      "##k y a k k y a w a _ m a i _ d a d i _ ": 843,
      "##k y a k k y a w a _ n a g a r i": 844,
      "##k y a k k y a w a _ m a i _ d a d i _ m a i _ k y a u _ ": 845,
      "##k y a k k y a w a _ n a g a r i _ m a i _ k y a u": 846,
      "##k y a k k y a w a _ m a f i _ k y a u _ k y a k y a w a n _ ": 847,
      "##k y a k k y a w a _ m u b a m b a n t a _ m a f i _ k y a u _ ": 848,
      "##k y a k k y a w a _ m a i _ k y a u _ n a g a r i": 849,
      "##k y a k k y a w a _ m u b a m b a n t a _ i n a _ s o _ ": 850,
      "##k y a k k y a w a _ m u b a m b a n t a _ m u b a m b a n t a": 851,
      "##k y a k k y a w a _ n a g a r i _ n a g a r i": 852,
      "##k y a k k y a w a _ m a i _ d a d i _ m a i _ k y a u": 853,
      "##k y a k k y a w a _ k y a k k y a w a _ m a i _ k y a u": 854,
      "##m a i _ d a d i _ m a i _ d a d i": 855,
      "##m a i _ d a d i _ m u b a m b a n t a _ k y a k k y a w a _ ": 856,
      "##m a i _ d a d i _ m a f i _ k y a u _ m a i _ d a d i _ ": 857,
      "##m a i _ d a d i _ n a g a r i _ m a i _ k y a u": 858,
      "##m a i _ d a d i _ n a g a r i _ k y a k k y a w a": 859,
      "##m a i _ d a d i _ n a g a r i _ n a g a r i": 860,
      "##m a i _ d a d i _ i n a _ s o _ m a f i _ k y a u": 861,
      "##m a i _ d a d i _ m a f i _ k y a u _ m a f i _ k y a u": 862,
      "##m a i _ d a d i _ k y a k k y a w a _ k y a k k y a w a": 863,
      "##m a i _ d a d i _ m a i _ d a d i _ n a g a r i": 864,
      "##m a i _ d a d i _ k y a k k y a w a _ n a g a r i": 865,
      "##b a _ k o m a i _ n a _ y a u _ d a _ k u l l u n _ ": 866,
      "##b a _ k o m a i _ n a _ k o w a": 867,
      "##b a _ k o m a i _ m a t s a k a i c i": 868,
      "##b a _ k o m a i _ n a _ y a u _ d a _ k u l l u n": 869,
      "##b a _ k o m a i _ m a t s a k a i c i _ n a _ a l ' a d a": 870,
      "##b a _ k o m a i _ b a _ k o m a i _ n a _ g a b a _ ": 871,
      "##b a _ k o m a i _ d a i d a i _ n a _ a l ' a d a _ ": 872,
      "##b a _ k o m a i _ d a i d a i _ k a m a r _ y a d d a _ y a _ k a m a t a _ n a _ k o w a": 873,
      "##b a _ k o m a i _ m a t s a k a i c i _ m a t s a k a i c i": 874,
      "##b a _ k o m a i _ n a _ a l ' a d a _ b a _ k o m a i _ k a m a r _ y a d d a _ y a _ k a m a t a": 875,
      "##i n a _ s o _ k y a k y a w a n": 876,
      "##i n a _ s o _ n a g a r i": 877,
      "##i n a _ s o _ i n a _ s o _ m a f i _ k y a u _ ": 878,
      "##i n a _ s o _ n a g a r i _ k y a k k y a w a _ ": 879,
      "##i n a _ s o _ n a g a r i _ k y a k y a w a n _ ": 880,
      "##i n a _ s o _ n a g a r i _ m u b a m b a n t a": 881,
      "##i n a _ s o _ m u b a m b a n t a _ m a i _ d a d i": 882,
      "##i n a _ s o _ m a i _ k y a u _ i n a _ s o": 883,
      "##i n a _ s o _ m u b a m b a n t a _ m a f i _ k y a u": 884,
      "##i n a _ s o _ m a i _ k y a u _ m u b a m b a n t a _ ": 885,
      "##n a _ y a u _ d a _ k u l l u n _ k a m a r _ y a d d a _ y a _ k a m a t a _ n a _ y a u _ d a _ k u l l u n _ ": 886,
      "##n a _ y a u _ d a _ k u l l u n _ n a _ k o w a _ n a _ k o w a _ ": 887,
      "##n a _ y a u _ d a _ k u l l u n _ m a t s a k a i c i _ n a _ y a u _ d a _ k u l l u n _ ": 888,
      "##n a _ y a u _ d a _ k u l l u n _ n a _ k o w a _ n a _ a l ' a d a": 889,
      "##n a _ y a u _ d a _ k u l l u n _ n a _ k o w a _ m a t s a k a i c i": 890,
      "##n a _ y a u _ d a _ k u l l u n _ m a t s a k a i c i _ m a t s a k a i c i": 891,
      "##n a _ y a u _ d a _ k u l l u n _ k a m a r _ y a d d a _ y a _ k a m a t a _ n a _ a l ' a d a _ n a _ k o w a": 892,
      "##n a _ y a u _ d a _ k u l l u n _ k a m a r _ y a d d a _ y a _ k a m a t a _ b a _ k o m a i _ n a _ a l ' a d a": 893,
      "##m a f i _ k y a u _ m a i _ d a d i": 894,
      "##m a f i _ k y a u _ m a i _ k y a u _ k y a k k y a w a _ ": 895,
      "##m a f i _ k y a u _ m a f i _ k y a u _ m a i _ d a d i _ ": 896,
      "##m a f i _ k y a u _ m a i _ k y a u _ k y a k y a w a n _ ": 897,
      "##m a f i _ k y a u _ i n a _ s o _ m a i _ d a d i _ ": 898,
      "##m a f i _ k y a u _ i n a _ s o _ k y a k k y a w a _ ": 899,
      "##m a f i _ k y a u _ m a i _ k y a u _ i n a _ s o _ ": 900,
      "##m a f i _ k y a u _ m a i _ k y a u _ m a f i _ k y a u": 901,
      "##m a f i _ k y a u _ m u b a m b a n t a _ n a g a r i": 902,
      "##m a f i _ k y a u _ m u b a m b a n t a _ m a f i _ k y a u": 903,
      "##m a f i _ k y a u _ m a i _ k y a u _ k y a k k y a w a": 904,
      "##m a f i _ k y a u _ m a i _ k y a u _ n a g a r i _ m u b a m b a n t a": 905,
      "##m a f i _ k y a u _ m u b a m b a n t a _ m u b a m b a n t a _ i n a _ s o _ ": 906,
      "##r a s h i n _ j i n _ d a d i _ m a f i _ m u n i _ ": 907,
      "##r a s h i n _ j i n _ d a d i _ m u m m u n a _ b a _ k y a u _ b a _ ": 908,
      "##r a s h i n _ j i n _ d a d i _ m a f i _ m u n i _ b a _ k y a u _ b a _ ": 909,
      "##r a s h i n _ j i n _ d a d i _ m a f i _ m u n i _ a b i n _ t a k a i c i _ ": 910,
      "##r a s h i n _ j i n _ d a d i _ m a i _ m u n i _ n a _ k y a m a": 911,
      "##r a s h i n _ j i n _ d a d i _ m a f i _ m u n i _ n a _ k y a m a _ ": 912,
      "##r a s h i n _ j i n _ d a d i _ m a i _ m u n i _ a b i n _ t a k a i c i _ ": 913,
      "##r a s h i n _ j i n _ d a d i _ m a i _ m u n i _ m a f i _ m u n i": 914,
      "##r a s h i n _ j i n _ d a d i _ m a i _ b a n ƙ y a m a _ a b i n _ t a k a i c i": 915,
      "##r a s h i n _ j i n _ d a d i _ n a _ k y a m a _ a b i n _ t a k a i c i": 916,
      "##r a s h i n _ j i n _ d a d i _ m a f i _ m u n i _ m a i _ m u n i": 917,
      "##r a s h i n _ j i n _ d a d i _ r a s h i n _ j i n _ d a d i _ a b i n _ t a k a i c i _ m a i _ m u n i": 918,
      "##n a _ k y a m a _ m a i _ b a n ƙ y a m a": 919,
      "##n a _ k y a m a _ n a _ k y a m a": 920,
      "##n a _ k y a m a _ m a i _ m u n i _ n a _ k y a m a _ ": 921,
      "##n a _ k y a m a _ m a f i _ m u n i _ r a s h i n _ j i n _ d a d i": 922,
      "##n a _ k y a m a _ m a i _ m u n i _ m a i _ b a n ƙ y a m a _ ": 923,
      "##n a _ k y a m a _ r a s h i n _ j i n _ d a d i _ a b i n _ t a k a i c i _ ": 924,
      "##n a _ k y a m a _ m a f i _ m u n i _ m u m m u n a _ ": 925,
      "##n a _ k y a m a _ m a f i _ m u n i _ n a _ k y a m a": 926,
      "##n a _ k y a m a _ m a f i _ m u n i _ m a f i _ m u n i": 927,
      "##n a _ k y a m a _ r a s h i n _ j i n _ d a d i _ m u m m u n a": 928,
      "##n a _ k y a m a _ m a i _ b a n ƙ y a m a _ a b i n _ t a k a i c i": 929,
      "##n a _ k y a m a _ b a _ k y a u _ b a _ m a f i _ m u n i": 930,
      "##n a _ k y a m a _ n a _ k y a m a _ a b i n _ t a k a i c i _ n a _ k y a m a": 931,
      "##n a _ k y a m a _ r a s h i n _ j i n _ d a d i _ m a f i _ m u n i _ n a _ k y a m a _ ": 932,
      "##n a _ g a b a _ b a _ k o m a i": 933,
      "##n a _ g a b a _ m a t s a k a i c i": 934,
      "##n a _ g a b a _ m a t s a k a i c i _ m a t s a k a i c i _ ": 935,
      "##n a _ g a b a _ d a i d a i _ n a _ y a u _ d a _ k u l l u n _ ": 936,
      "##n a _ g a b a _ n a _ g a b a _ n a _ a l ' a d a": 937,
      "##n a _ g a b a _ m a t s a k a i c i _ b a _ k o m a i _ ": 938,
      "##n a _ g a b a _ d a i d a i _ n a _ k o w a": 939,
      "##n a _ g a b a _ m a t s a k a i c i _ n a _ g a b a": 940,
      "##n a _ g a b a _ n a _ g a b a _ n a _ g a b a": 941,
      "##n a _ g a b a _ d a i d a i _ d a i d a i": 942,
      "##b a _ k y a u _ b a _ r a s h i n _ j i n _ d a d i _ m a i _ b a n ƙ y a m a": 943,
      "##b a _ k y a u _ b a _ b a _ k y a u _ b a _ a b i n _ t a k a i c i": 944,
      "##b a _ k y a u _ b a _ n a _ k y a m a _ m u m m u n a _ ": 945,
      "##b a _ k y a u _ b a _ m a i _ b a n ƙ y a m a _ r a s h i n _ j i n _ d a d i": 946,
      "##b a _ k y a u _ b a _ r a s h i n _ j i n _ d a d i _ m a i _ m u n i": 947,
      "##b a _ k y a u _ b a _ r a s h i n _ j i n _ d a d i _ m u m m u n a": 948,
      "##b a _ k y a u _ b a _ b a _ k y a u _ b a _ n a _ k y a m a": 949,
      "##b a _ k y a u _ b a _ m a f i _ m u n i _ b a _ k y a u _ b a": 950,
      "##b a _ k y a u _ b a _ m a i _ m u n i _ m a i _ b a n ƙ y a m a": 951,
      "##b a _ k y a u _ b a _ b a _ k y a u _ b a _ m u m m u n a": 952,
      "##b a _ k y a u _ b a _ n a _ k y a m a _ a b i n _ t a k a i c i _ n a _ k y a m a": 953,
      "##b a _ k y a u _ b a _ r a s h i n _ j i n _ d a d i _ n a _ k y a m a _ b a _ k y a u _ b a": 954,
      "##m a f i _ m u n i _ m a f i _ m u n i _ ": 955,
      "##m a f i _ m u n i _ r a s h i n _ j i n _ d a d i _ r a s h i n _ j i n _ d a d i _ ": 956,
      "##m a f i _ m u n i _ m a i _ b a n ƙ y a m a _ n a _ k y a m a _ ": 957,
      "##m a f i _ m u n i _ m a f i _ m u n i _ r a s h i n _ j i n _ d a d i": 958,
      "##m a f i _ m u n i _ r a s h i n _ j i n _ d a d i _ n a _ k y a m a _ ": 959,
      "##m a f i _ m u n i _ b a _ k y a u _ b a _ a b i n _ t a k a i c i": 960,
      "##m a f i _ m u n i _ m a f i _ m u n i _ m a f i _ m u n i": 961,
      "##m a f i _ m u n i _ n a _ k y a m a _ a b i n _ t a k a i c i _ m u m m u n a": 962,
      "##m a i _ m u n i _ b a _ k y a u _ b a": 963,
      "##m a i _ m u n i _ m a f i _ m u n i _ b a _ k y a u _ b a _ ": 964,
      "##m a i _ m u n i _ b a _ k y a u _ b a _ a b i n _ t a k a i c i _ ": 965,
      "##m a i _ m u n i _ r a s h i n _ j i n _ d a d i _ b a _ k y a u _ b a _ ": 966,
      "##m a i _ m u n i _ m a i _ b a n ƙ y a m a _ a b i n _ t a k a i c i _ ": 967,
      "##m a i _ m u n i _ r a s h i n _ j i n _ d a d i _ m a i _ m u n i": 968,
      "##m a i _ m u n i _ n a _ k y a m a _ a b i n _ t a k a i c i _ m u m m u n a": 969,
      "##m a i _ m u n i _ r a s h i n _ j i n _ d a d i _ b a _ k y a u _ b a": 970,
      "##m a i _ m u n i _ b a _ k y a u _ b a _ a b i n _ t a k a i c i _ a b i n _ t a k a i c i _ ": 971,
      "##m a i _ m u n i _ m a f i _ m u n i _ m a f i _ m u n i _ m a f i _ m u n i": 972,
      "##n a _ k o w a _ n a _ g a b a _ n a _ a l ' a d a _ ": 973,
      "##n a _ k o w a _ n a _ k o w a _ k a m a r _ y a d d a _ y a _ k a m a t a": 974,
      "##n a _ k o w a _ d a i d a i _ n a _ g a b a": 975,
      "##n a _ k o w a _ d a i d a i _ m a t s a k a i c i _ n a _ y a u _ d a _ k u l l u n": 976,
      "##n a _ k o w a _ d a i d a i _ n a _ y a u _ d a _ k u l l u n _ n a _ g a b a": 977,
      "##m u m m u n a _ m a i _ m u n i": 978,
      "##m u m m u n a _ m u m m u n a _ b a _ k y a u _ b a _ ": 979,
      "##m u m m u n a _ m a f i _ m u n i _ r a s h i n _ j i n _ d a d i": 980,
      "##m u m m u n a _ r a s h i n _ j i n _ d a d i _ m a i _ b a n ƙ y a m a": 981,
      "##m u m m u n a _ r a s h i n _ j i n _ d a d i _ a b i n _ t a k a i c i": 982,
      "##m u m m u n a _ r a s h i n _ j i n _ d a d i _ m a i _ m u n i": 983,
      "##m u m m u n a _ m a f i _ m u n i _ m a f i _ m u n i": 984,
      "##m u m m u n a _ m a i _ b a n ƙ y a m a _ m a f i _ m u n i": 985,
      "##m u m m u n a _ m a f i _ m u n i _ b a _ k y a u _ b a": 986,
      "##m u m m u n a _ m a i _ b a n ƙ y a m a _ n a _ k y a m a _ m a i _ b a n ƙ y a m a": 987,
      "##m u m m u n a _ m u m m u n a _ m a f i _ m u n i": 988,
      "##_ a b i n _ t a k a i c i _ m a i _ b a n ƙ y a m a _ m a f i _ m u n i _ ": 989,
      "##_ a b i n _ t a k a i c i _ r a s h i n _ j i n _ d a d i _ m a i _ m u n i _ a b i n _ t a k a i c i _ ": 990,
      "##m a i _ b a n ƙ y a m a _ r a s h i n _ j i n _ d a d i _ b a _ k y a u _ b a _ ": 991,
      "##m a i _ b a n ƙ y a m a _ m a i _ m u n i _ m a f i _ m u n i": 992,
      "##m a i _ b a n ƙ y a m a _ m a i _ m u n i _ b a _ k y a u _ b a _ ": 993,
      "##m a i _ b a n ƙ y a m a _ m u m m u n a _ m u m m u n a": 994,
      "##m a i _ b a n ƙ y a m a _ m a f i _ m u n i _ b a _ k y a u _ b a": 995,
      "##m a i _ b a n ƙ y a m a _ b a _ k y a u _ b a _ m u m m u n a": 996,
      "##m a i _ b a n ƙ y a m a _ m u m m u n a _ m a i _ b a n ƙ y a m a _ m a f i _ m u n i": 997,
      "##d a d i _ a b i n _ t a k a i c i _ a b i n _ t a k a i c i _ ": 998,
      "##n a _ a l ' a d a _ n a _ a l ' a d a _ ": 999,
      "##n a _ a l ' a d a _ d a i d a i _ n a _ g a b a _ ": 1000,
      "##n a _ a l ' a d a _ k a m a r _ y a d d a _ y a _ k a m a t a _ n a _ y a u _ d a _ k u l l u n _ ": 1001,
      "##n a _ a l ' a d a _ n a _ g a b a _ n a _ y a u _ d a _ k u l l u n _ ": 1002,
      "##n a _ a l ' a d a _ n a _ g a b a _ n a _ a l ' a d a": 1003,
      "##n a _ a l ' a d a _ k a m a r _ y a d d a _ y a _ k a m a t a _ b a _ k o m a i _ ": 1004,
      "##n a _ a l ' a d a _ n a _ g a b a _ n a _ a l ' a d a _ ": 1005,
      "##n a _ a l ' a d a _ n a _ k o w a _ m a t s a k a i c i": 1006,
      "##n a _ a l ' a d a _ k a m a r _ y a d d a _ y a _ k a m a t a _ b a _ k o m a i": 1007,
      "##n a _ a l ' a d a _ n a _ y a u _ d a _ k u l l u n _ d a i d a i _ b a _ k o m a i": 1008,
      "##n a _ a l ' a d a _ m a t s a k a i c i _ n a _ g a b a _ k a m a r _ y a d d a _ y a _ k a m a t a": 1009,
      "##k a m a r _ y a d d a _ y a _ k a m a t a _ n a _ a l ' a d a": 1010,
      "##k a m a r _ y a d d a _ y a _ k a m a t a _ n a _ g a b a": 1011,
      "##k a m a r _ y a d d a _ y a _ k a m a t a _ n a _ k o w a": 1012,
      "##k a m a r _ y a d d a _ y a _ k a m a t a _ d a i d a i _ d a i d a i _ ": 1013,
      "##k a m a r _ y a d d a _ y a _ k a m a t a _ d a i d a i _ m a t s a k a i c i _ ": 1014,
      "##k a m a r _ y a d d a _ y a _ k a m a t a _ n a _ g a b a _ n a _ a l ' a d a": 1015,
      "##k a m a r _ y a d d a _ y a _ k a m a t a _ m a t s a k a i c i _ b a _ k o m a i _ ": 1016,
      "##k a m a r _ y a d d a _ y a _ k a m a t a _ n a _ g a b a _ n a _ g a b a _ n a _ y a u _ d a _ k u l l u n _ ": 1017,
      "##k a m a r _ y a d d a _ y a _ k a m a t a _ n a _ g a b a _ m a t s a k a i c i _ n a _ y a u _ d a _ k u l l u n _ ": 1018,
      "##k a m a r _ y a d d a _ y a _ k a m a t a _ d a i d a i _ b a _ k o m a i _ d a i d a i": 1019,
      "m a f i _ m u n i _ a b i n _ t a k a i c i _ a b i n _ t a k a i c i _ ": 1020,
      "##m a i _ m u n i _ a b i n _ t a k a i c i _ a b i n _ t a k a i c i _ ": 1021,
      "## _ a b i n _ t a k a i c i _ n a _ k y a m a _ a b i n _ t a k a i c i": 1022,
      "## _ a b i n _ t a k a i c i _ m a i _ b a n ƙ y a m a _ m u m m u n a": 1023,
      "n a g a r i _ m u b a m b a n t a _ k y a k k y a w a _ ": 1024,
      "n a g a r i _ n a g a r i _ k y a k k y a w a _ ": 1025,
      "n a g a r i _ m a i _ k y a u _ k y a k y a w a n _ ": 1026,
      "n a g a r i _ m u b a m b a n t a _ m a i _ d a d i _ ": 1027,
      "n a g a r i _ n a g a r i _ m a f i _ k y a u": 1028,
      "n a g a r i _ m u b a m b a n t a _ m u b a m b a n t a": 1029,
      "n a g a r i _ i n a _ s o _ m a i _ k y a u": 1030,
      "n a g a r i _ n a g a r i _ m a i _ d a d i _ m a i _ d a d i": 1031,
      "n a g a r i _ i n a _ s o _ m a i _ k y a u _ k y a k y a w a n _ k y a k y a w a n _ ": 1032,
      "n a g a r i _ m a f i _ k y a u _ n a g a r i _ m u b a m b a n t a _ ": 1033,
      "n a g a r i _ i n a _ s o _ m a i _ d a d i _ m a f i _ k y a u _ ": 1034,
      "n a g a r i _ m a f i _ k y a u _ i n a _ s o _ m a i _ d a d i _ ": 1035,
      "m a i _ b a n ƙ y a m a _ a b i n _ t a k a i c i": 1036,
      "##_ a b i n _ t a k a i c i _ a b i n _ t a k a i c i": 1037,
      "n a _ y a u _ d a _ k u l l u n _ d a i d a i _ d a i d a i _ ": 1038,
      "n a _ y a u _ d a _ k u l l u n _ d a i d a i _ b a _ k o m a i _ ": 1039,
      "n a _ y a u _ d a _ k u l l u n _ d a i d a i _ n a _ g a b a _ ": 1040,
      "n a _ y a u _ d a _ k u l l u n _ n a _ g a b a _ b a _ k o m a i _ ": 1041,
      "n a _ y a u _ d a _ k u l l u n _ m a t s a k a i c i _ m a t s a k a i c i _ ": 1042,
      "n a _ y a u _ d a _ k u l l u n _ n a _ g a b a _ n a _ k o w a _ ": 1043,
      "n a _ y a u _ d a _ k u l l u n _ k a m a r _ y a d d a _ y a _ k a m a t a _ n a _ y a u _ d a _ k u l l u n _ ": 1044,
      "n a _ y a u _ d a _ k u l l u n _ d a i d a i _ m a t s a k a i c i _ ": 1045,
      "n a _ y a u _ d a _ k u l l u n _ n a _ k o w a _ k a m a r _ y a d d a _ y a _ k a m a t a _ ": 1046,
      "n a _ y a u _ d a _ k u l l u n _ d a i d a i _ n a _ y a u _ d a _ k u l l u n _ ": 1047,
      "n a _ y a u _ d a _ k u l l u n _ k a m a r _ y a d d a _ y a _ k a m a t a _ b a _ k o m a i _ ": 1048,
      "n a _ y a u _ d a _ k u l l u n _ k a m a r _ y a d d a _ y a _ k a m a t a _ k a m a r _ y a d d a _ y a _ k a m a t a _ ": 1049,
      "n a _ y a u _ d a _ k u l l u n _ n a _ k o w a _ b a _ k o m a i _ ": 1050,
      "n a _ y a u _ d a _ k u l l u n _ n a _ k o w a _ n a _ k o w a _ m a t s a k a i c i _ ": 1051,
      "n a _ y a u _ d a _ k u l l u n _ d a i d a i _ n a _ g a b a": 1052,
      "n a _ y a u _ d a _ k u l l u n _ n a _ g a b a _ n a _ k o w a": 1053,
      "n a _ y a u _ d a _ k u l l u n _ d a i d a i _ n a _ y a u _ d a _ k u l l u n": 1054,
      "n a _ y a u _ d a _ k u l l u n _ n a _ g a b a _ k a m a r _ y a d d a _ y a _ k a m a t a _ ": 1055,
      "n a _ y a u _ d a _ k u l l u n _ k a m a r _ y a d d a _ y a _ k a m a t a _ n a _ y a u _ d a _ k u l l u n _ k a m a r _ y a d d a _ y a _ k a m a t a": 1056,
      "n a _ y a u _ d a _ k u l l u n _ d a i d a i _ k a m a r _ y a d d a _ y a _ k a m a t a _ n a _ k o w a": 1057,
      "n a _ y a u _ d a _ k u l l u n _ n a _ y a u _ d a _ k u l l u n _ b a _ k o m a i _ n a _ a l ' a d a _ m a t s a k a i c i": 1058,
      "n a _ y a u _ d a _ k u l l u n _ n a _ k o w a _ n a _ a l ' a d a _ k a m a r _ y a d d a _ y a _ k a m a t a": 1059,
      "n a _ y a u _ d a _ k u l l u n _ n a _ g a b a _ m a t s a k a i c i _ n a _ g a b a": 1060,
      "m a i _ b a n ƙ y a m a _ m u m m u n a _ b a _ k y a u _ b a _ ": 1061,
      "m a i _ b a n ƙ y a m a _ m a f i _ m u n i _ b a _ k y a u _ b a _ ": 1062,
      "m a i _ b a n ƙ y a m a _ r a s h i n _ j i n _ d a d i _ r a s h i n _ j i n _ d a d i _ ": 1063,
      "m a i _ b a n ƙ y a m a _ m a i _ m u n i _ n a _ k y a m a _ ": 1064,
      "m a i _ b a n ƙ y a m a _ n a _ k y a m a _ a b i n _ t a k a i c i _ ": 1065,
      "m a i _ b a n ƙ y a m a _ m a f i _ m u n i _ m a i _ b a n ƙ y a m a": 1066,
      "m a i _ b a n ƙ y a m a _ m a i _ b a n ƙ y a m a _ m a i _ b a n ƙ y a m a _ ": 1067,
      "m a i _ b a n ƙ y a m a _ r a s h i n _ j i n _ d a d i _ n a _ k y a m a _ ": 1068,
      "m a i _ b a n ƙ y a m a _ r a s h i n _ j i n _ d a d i _ m u m m u n a _ ": 1069,
      "m a i _ b a n ƙ y a m a _ m a i _ m u n i _ m a i _ b a n ƙ y a m a _ ": 1070,
      "m a i _ b a n ƙ y a m a _ m a i _ m u n i _ n a _ k y a m a": 1071,
      "m a i _ b a n ƙ y a m a _ r a s h i n _ j i n _ d a d i _ a b i n _ t a k a i c i _ ": 1072,
      "m a i _ b a n ƙ y a m a _ b a _ k y a u _ b a _ a b i n _ t a k a i c i": 1073,
      "m a i _ b a n ƙ y a m a _ m u m m u n a _ a b i n _ t a k a i c i _ ": 1074,
      "m a i _ b a n ƙ y a m a _ m a i _ m u n i _ m a i _ m u n i _ ": 1075,
      "m a i _ b a n ƙ y a m a _ r a s h i n _ j i n _ d a d i _ b a _ k y a u _ b a _ ": 1076,
      "m a i _ b a n ƙ y a m a _ n a _ k y a m a _ m u m m u n a _ ": 1077,
      "m a i _ b a n ƙ y a m a _ n a _ k y a m a _ b a _ k y a u _ b a": 1078,
      "m a i _ b a n ƙ y a m a _ b a _ k y a u _ b a _ m u m m u n a _ ": 1079,
      "m a i _ b a n ƙ y a m a _ m a i _ m u n i _ m u m m u n a _ ": 1080,
      "m a i _ b a n ƙ y a m a _ m u m m u n a _ n a _ k y a m a _ ": 1081,
      "m a i _ b a n ƙ y a m a _ m u m m u n a _ b a _ k y a u _ b a": 1082,
      "m a i _ b a n ƙ y a m a _ r a s h i n _ j i n _ d a d i _ b a _ k y a u _ b a": 1083,
      "m a i _ b a n ƙ y a m a _ m a i _ m u n i _ m a f i _ m u n i _ n a _ k y a m a": 1084,
      "m a i _ b a n ƙ y a m a _ m u m m u n a _ a b i n _ t a k a i c i": 1085,
      "m a i _ b a n ƙ y a m a _ r a s h i n _ j i n _ d a d i _ m a i _ b a n ƙ y a m a _ ": 1086,
      "m a i _ b a n ƙ y a m a _ r a s h i n _ j i n _ d a d i _ m a i _ b a n ƙ y a m a _ a b i n _ t a k a i c i": 1087,
      "m a i _ b a n ƙ y a m a _ m a i _ m u n i _ b a _ k y a u _ b a _ a b i n _ t a k a i c i _ ": 1088,
      "m a i _ b a n ƙ y a m a _ m a i _ m u n i _ a b i n _ t a k a i c i _ a b i n _ t a k a i c i _ ": 1089,
      "m a i _ k y a u _ n a g a r i _ m u b a m b a n t a _ ": 1090,
      "m a i _ k y a u _ m a i _ d a d i _ m a i _ k y a u _ ": 1091,
      "m a i _ k y a u _ m a i _ k y a u _ k y a k k y a w a _ ": 1092,
      "m a i _ k y a u _ i n a _ s o _ k y a k y a w a n _ ": 1093,
      "m a i _ k y a u _ i n a _ s o _ m a f i _ k y a u _ ": 1094,
      "m a i _ k y a u _ n a g a r i _ k y a k k y a w a _ ": 1095,
      "m a i _ k y a u _ m a i _ k y a u _ k y a k y a w a n _ ": 1096,
      "m a i _ k y a u _ i n a _ s o _ m a i _ d a d i _ ": 1097,
      "m a i _ k y a u _ i n a _ s o _ k y a k k y a w a _ ": 1098,
      "m a i _ k y a u _ n a g a r i _ m a i _ k y a u": 1099,
      "m a i _ k y a u _ n a g a r i _ m u b a m b a n t a": 1100,
      "m a i _ k y a u _ m a i _ k y a u _ n a g a r i": 1101,
      "m a i _ k y a u _ n a g a r i _ m a i _ k y a u _ ": 1102,
      "m a i _ k y a u _ n a g a r i _ n a g a r i": 1103,
      "m a i _ k y a u _ m u b a m b a n t a _ m a i _ k y a u _ ": 1104,
      "m a i _ k y a u _ m a i _ k y a u _ k y a k y a w a n": 1105,
      "m a i _ k y a u _ m a i _ k y a u _ m a f i _ k y a u": 1106,
      "m a i _ k y a u _ k y a k y a w a n _ n a g a r i _ ": 1107,
      "m a i _ k y a u _ m u b a m b a n t a _ m u b a m b a n t a _ ": 1108,
      "m a i _ k y a u _ i n a _ s o _ m a f i _ k y a u _ m a f i _ k y a u _ ": 1109,
      "m a i _ k y a u _ n a g a r i _ n a g a r i _ k y a k k y a w a _ ": 1110,
      "m a i _ k y a u _ m a i _ k y a u _ m a i _ d a d i _ m a i _ k y a u _ ": 1111,
      "m a i _ k y a u _ i n a _ s o _ n a g a r i _ k y a k y a w a n _ ": 1112,
      "k y a k k y a w a _ i n a _ s o _ k y a k y a w a n _ ": 1113,
      "k y a k k y a w a _ i n a _ s o _ m a f i _ k y a u _ ": 1114,
      "k y a k k y a w a _ k y a k y a w a n _ m a i _ d a d i _ ": 1115,
      "k y a k k y a w a _ m u b a m b a n t a _ m a f i _ k y a u _ ": 1116,
      "k y a k k y a w a _ n a g a r i _ m u b a m b a n t a": 1117,
      "k y a k k y a w a _ m a i _ k y a u _ n a g a r i": 1118,
      "k y a k k y a w a _ n a g a r i _ m a i _ d a d i _ ": 1119,
      "k y a k k y a w a _ n a g a r i _ k y a k k y a w a": 1120,
      "k y a k k y a w a _ n a g a r i _ m a i _ k y a u _ ": 1121,
      "k y a k k y a w a _ m u b a m b a n t a _ m a i _ k y a u": 1122,
      "k y a k k y a w a _ m u b a m b a n t a _ m a i _ d a d i": 1123,
      "k y a k k y a w a _ m a i _ k y a u _ m a f i _ k y a u": 1124,
      "k y a k k y a w a _ i n a _ s o _ i n a _ s o": 1125,
      "k y a k k y a w a _ i n a _ s o _ k y a k k y a w a": 1126,
      "k y a k k y a w a _ m a i _ k y a u _ m u b a m b a n t a _ ": 1127,
      "k y a k k y a w a _ n a g a r i _ n a g a r i _ m u b a m b a n t a _ ": 1128,
      "k y a k k y a w a _ n a g a r i _ n a g a r i _ k y a k k y a w a _ ": 1129,
      "k y a k k y a w a _ m a i _ d a d i _ i n a _ s o": 1130,
      "k y a k k y a w a _ m a i _ k y a u _ i n a _ s o _ m a f i _ k y a u _ m a f i _ k y a u _ ": 1131,
      "k y a k k y a w a _ m a i _ d a d i _ m a f i _ k y a u _ m a f i _ k y a u": 1132,
      "k y a k k y a w a _ m a f i _ k y a u _ m a i _ k y a u _ k y a k k y a w a _ ": 1133,
      "d a i d a i _ n a _ k o w a _ m a t s a k a i c i _ ": 1134,
      "d a i d a i _ d a i d a i _ d a i d a i _ ": 1135,
      "d a i d a i _ d a i d a i _ n a _ g a b a _ ": 1136,
      "d a i d a i _ n a _ y a u _ d a _ k u l l u n _ d a i d a i _ ": 1137,
      "d a i d a i _ d a i d a i _ k a m a r _ y a d d a _ y a _ k a m a t a _ ": 1138,
      "d a i d a i _ n a _ k o w a _ n a _ k o w a _ ": 1139,
      "d a i d a i _ n a _ g a b a _ n a _ y a u _ d a _ k u l l u n _ ": 1140,
      "d a i d a i _ n a _ g a b a _ n a _ a l ' a d a _ ": 1141,
      "d a i d a i _ k a m a r _ y a d d a _ y a _ k a m a t a _ k a m a r _ y a d d a _ y a _ k a m a t a _ ": 1142,
      "d a i d a i _ d a i d a i _ n a _ k o w a": 1143,
      "d a i d a i _ n a _ y a u _ d a _ k u l l u n _ k a m a r _ y a d d a _ y a _ k a m a t a": 1144,
      "d a i d a i _ n a _ g a b a _ d a i d a i": 1145,
      "d a i d a i _ n a _ k o w a _ n a _ k o w a _ m a t s a k a i c i _ ": 1146,
      "d a i d a i _ m a t s a k a i c i _ n a _ k o w a": 1147,
      "d a i d a i _ m a t s a k a i c i _ n a _ k o w a _ k a m a r _ y a d d a _ y a _ k a m a t a _ ": 1148,
      "d a i d a i _ n a _ g a b a _ k a m a r _ y a d d a _ y a _ k a m a t a _ ": 1149,
      "d a i d a i _ n a _ g a b a _ n a _ g a b a _ n a _ y a u _ d a _ k u l l u n _ ": 1150,
      "d a i d a i _ d a i d a i _ b a _ k o m a i _ b a _ k o m a i": 1151,
      "d a i d a i _ n a _ k o w a _ n a _ a l ' a d a _ n a _ g a b a": 1152,
      "d a i d a i _ n a _ g a b a _ d a i d a i _ n a _ y a u _ d a _ k u l l u n _ ": 1153,
      "k a m a r _ y a d d a _ y a _ k a m a t a _ k a m a r _ y a d d a _ y a _ k a m a t a _ ": 1154,
      "##k a m a r _ y a d d a _ y a _ k a m a t a _ k a m a r _ y a d d a _ y a _ k a m a t": 1155,
      "##k a m a r _ y a d d a _ y a _ k a m a t a _ k a m a r _ y a d d a _ y a _ k a m a t a": 1156,
      "b a _ k o m a i _ n a _ y a u _ d a _ k u l l u n _ b a _ k o m a i _ ": 1157,
      "b a _ k o m a i _ d a i d a i _ d a i d a i _ ": 1158,
      "b a _ k o m a i _ n a _ y a u _ d a _ k u l l u n _ d a i d a i _ ": 1159,
      "b a _ k o m a i _ n a _ g a b a _ n a _ k o w a _ ": 1160,
      "b a _ k o m a i _ k a m a r _ y a d d a _ y a _ k a m a t a _ n a _ a l ' a d a _ ": 1161,
      "b a _ k o m a i _ d a i d a i _ n a _ y a u _ d a _ k u l l u n _ ": 1162,
      "b a _ k o m a i _ n a _ g a b a _ n a _ y a u _ d a _ k u l l u n _ ": 1163,
      "b a _ k o m a i _ m a t s a k a i c i _ b a _ k o m a i _ ": 1164,
      "b a _ k o m a i _ k a m a r _ y a d d a _ y a _ k a m a t a _ b a _ k o m a i _ ": 1165,
      "b a _ k o m a i _ d a i d a i _ n a _ a l ' a d a": 1166,
      "b a _ k o m a i _ n a _ k o w a _ b a _ k o m a i _ ": 1167,
      "b a _ k o m a i _ n a _ a l ' a d a _ n a _ a l ' a d a": 1168,
      "b a _ k o m a i _ b a _ k o m a i _ k a m a r _ y a d d a _ y a _ k a m a t a _ ": 1169,
      "b a _ k o m a i _ n a _ k o w a _ n a _ g a b a _ ": 1170,
      "b a _ k o m a i _ d a i d a i _ n a _ y a u _ d a _ k u l l u n": 1171,
      "b a _ k o m a i _ n a _ a l ' a d a _ d a i d a i": 1172,
      "b a _ k o m a i _ n a _ k o w a _ d a i d a i _ ": 1173,
      "b a _ k o m a i _ n a _ k o w a _ k a m a r _ y a d d a _ y a _ k a m a t a _ m a t s a k a i c i _ m a t s a k a i c i _ ": 1174,
      "b a _ k o m a i _ b a _ k o m a i _ d a i d a i _ k a m a r _ y a d d a _ y a _ k a m a t a _ n a _ k o w a": 1175,
      "m a i _ d a d i _ m u b a m b a n t a _ k y a k k y a w a _ ": 1176,
      "m a i _ d a d i _ i n a _ s o _ m a f i _ k y a u _ ": 1177,
      "m a i _ d a d i _ n a g a r i _ k y a k k y a w a _ ": 1178,
      "m a i _ d a d i _ m a f i _ k y a u _ m a i _ d a d i _ ": 1179,
      "m a i _ d a d i _ i n a _ s o _ k y a k k y a w a _ ": 1180,
      "m a i _ d a d i _ i n a _ s o _ i n a _ s o _ ": 1181,
      "m a i _ d a d i _ n a g a r i _ m a i _ d a d i _ ": 1182,
      "m a i _ d a d i _ n a g a r i _ m a i _ d a d i": 1183,
      "m a i _ d a d i _ n a g a r i _ k y a k k y a w a": 1184,
      "m a i _ d a d i _ m a f i _ k y a u _ k y a k y a w a n": 1185,
      "m a i _ d a d i _ m u b a m b a n t a _ m a i _ d a d i": 1186,
      "m a i _ d a d i _ m a f i _ k y a u _ m a i _ k y a u": 1187,
      "m a i _ d a d i _ i n a _ s o _ m a i _ k y a u": 1188,
      "m a i _ d a d i _ n a g a r i _ m a f i _ k y a u _ k y a k k y a w a _ ": 1189,
      "m a i _ d a d i _ n a g a r i _ m u b a m b a n t a _ n a g a r i": 1190,
      "m a i _ d a d i _ m a f i _ k y a u _ k y a k y a w a n _ m a f i _ k y a u": 1191,
      "m a i _ d a d i _ n a g a r i _ i n a _ s o _ k y a k k y a w a _ m a i _ d a d i _ ": 1192,
      "m a i _ d a d i _ m a f i _ k y a u _ m a i _ k y a u _ k y a k y a w a n _ ": 1193,
      "k a m a r _ y a d d a _ y a _ k a m a t a _ m a t s a k a i c i _ b a _ k o m a i _ ": 1194,
      "k a m a r _ y a d d a _ y a _ k a m a t a _ n a _ g a b a _ n a _ a l ' a d a _ ": 1195,
      "k a m a r _ y a d d a _ y a _ k a m a t a _ n a _ k o w a _ n a _ a l ' a d a _ ": 1196,
      "k a m a r _ y a d d a _ y a _ k a m a t a _ n a _ k o w a _ b a _ k o m a i _ ": 1197,
      "k a m a r _ y a d d a _ y a _ k a m a t a _ n a _ k o w a _ n a _ k o w a _ m a t s a k a i c i _ ": 1198,
      "k a m a r _ y a d d a _ y a _ k a m a t a _ d a i d a i _ n a _ a l ' a d a _ ": 1199,
      "k a m a r _ y a d d a _ y a _ k a m a t a _ d a i d a i _ m a t s a k a i c i": 1200,
      "k a m a r _ y a d d a _ y a _ k a m a t a _ m a t s a k a i c i _ n a _ y a u _ d a _ k u l l u n _ ": 1201,
      "k a m a r _ y a d d a _ y a _ k a m a t a _ d a i d a i _ d a i d a i": 1202,
      "k a m a r _ y a d d a _ y a _ k a m a t a _ m a t s a k a i c i _ n a _ k o w a _ k a m a r _ y a d d a _ y a _ k a m a t a _ ": 1203,
      "k a m a r _ y a d d a _ y a _ k a m a t a _ n a _ y a u _ d a _ k u l l u n _ d a i d a i": 1204,
      "k a m a r _ y a d d a _ y a _ k a m a t a _ n a _ y a u _ d a _ k u l l u n _ b a _ k o m a i": 1205,
      "k a m a r _ y a d d a _ y a _ k a m a t a _ m a t s a k a i c i _ n a _ k o w a _ b a _ k o m a i _ ": 1206,
      "k a m a r _ y a d d a _ y a _ k a m a t a _ n a _ a l ' a d a _ k a m a r _ y a d d a _ y a _ k a m a t a _ b a _ k o m a i": 1207,
      "r a s h i n _ j i n _ d a d i _ a b i n _ t a k a i c i _ a b i n _ t a k a i c i _ ": 1208,
      "a b i n _ t a k a i c i _ n a _ k y a m a _ m a i _ m u n i": 1209,
      "a b i n _ t a k a i c i _ m a i _ m u n i _ m a i _ b a n ƙ y a m a _ ": 1210,
      "a b i n _ t a k a i c i _ m a i _ m u n i _ n a _ k y a m a": 1211,
      "a b i n _ t a k a i c i _ b a _ k y a u _ b a _ a b i n _ t a k a i c i _ ": 1212,
      "a b i n _ t a k a i c i _ m a i _ m u n i _ a b i n _ t a k a i c i _ ": 1213,
      "a b i n _ t a k a i c i _ n a _ k y a m a _ b a _ k y a u _ b a": 1214,
      "a b i n _ t a k a i c i _ m u m m u n a _ m u m m u n a": 1215,
      "a b i n _ t a k a i c i _ r a s h i n _ j i n _ d a d i _ m a i _ b a n ƙ y a m a _ n a _ k y a m a _ ": 1216,
      "a b i n _ t a k a i c i _ r a s h i n _ j i n _ d a d i _ m a i _ b a n ƙ y a m a _ r a s h i n _ j i n _ d a d i": 1217,
      "a b i n _ t a k a i c i _ m u m m u n a _ a b i n _ t a k a i c i": 1218,
      "a b i n _ t a k a i c i _ r a s h i n _ j i n _ d a d i _ n a _ k y a m a": 1219,
      "a b i n _ t a k a i c i _ n a _ k y a m a _ n a _ k y a m a _ m a f i _ m u n i _ m a i _ b a n ƙ y a m a": 1220,
      "a b i n _ t a k a i c i _ m a i _ b a n ƙ y a m a _ m a i _ b a n ƙ y a m a _ m u m m u n a": 1221,
      "a b i n _ t a k a i c i _ m a i _ b a n ƙ y a m a _ r a s h i n _ j i n _ d a d i _ r a s h i n _ j i n _ d a d i": 1222,
      "a b i n _ t a k a i c i _ r a s h i n _ j i n _ d a d i _ m u m m u n a _ b a _ k y a u _ b a _ ": 1223,
      "n a _ a l ' a d a _ n a _ k o w a _ m a t s a k a i c i _ ": 1224,
      "n a _ a l ' a d a _ n a _ g a b a _ b a _ k o m a i _ ": 1225,
      "n a _ a l ' a d a _ d a i d a i _ m a t s a k a i c i _ ": 1226,
      "n a _ a l ' a d a _ n a _ k o w a _ n a _ k o w a _ ": 1227,
      "n a _ a l ' a d a _ n a _ g a b a _ n a _ y a u _ d a _ k u l l u n _ ": 1228,
      "n a _ a l ' a d a _ m a t s a k a i c i _ b a _ k o m a i _ ": 1229,
      "n a _ a l ' a d a _ k a m a r _ y a d d a _ y a _ k a m a t a _ b a _ k o m a i _ ": 1230,
      "n a _ a l ' a d a _ n a _ k o w a _ n a _ a l ' a d a _ ": 1231,
      "n a _ a l ' a d a _ n a _ a l ' a d a _ m a t s a k a i c i": 1232,
      "n a _ a l ' a d a _ k a m a r _ y a d d a _ y a _ k a m a t a _ k a m a r _ y a d d a _ y a _ k a m a t a _ ": 1233,
      "n a _ a l ' a d a _ n a _ y a u _ d a _ k u l l u n _ n a _ a l ' a d a _ ": 1234,
      "n a _ a l ' a d a _ n a _ y a u _ d a _ k u l l u n _ k a m a r _ y a d d a _ y a _ k a m a t a": 1235,
      "n a _ a l ' a d a _ n a _ k o w a _ n a _ g a b a": 1236,
      "n a _ a l ' a d a _ n a _ k o w a _ n a _ k o w a _ m a t s a k a i c i _ ": 1237,
      "n a _ a l ' a d a _ b a _ k o m a i _ k a m a r _ y a d d a _ y a _ k a m a t a _ ": 1238,
      "n a _ a l ' a d a _ n a _ k o w a _ n a _ k o w a _ d a i d a i": 1239,
      "n a _ a l ' a d a _ m a t s a k a i c i _ n a _ k o w a _ k a m a r _ y a d d a _ y a _ k a m a t a _ ": 1240,
      "n a _ a l ' a d a _ n a _ y a u _ d a _ k u l l u n _ n a _ y a u _ d a _ k u l l u n _ ": 1241,
      "n a _ a l ' a d a _ n a _ k o w a _ d a i d a i _ ": 1242,
      "n a _ a l ' a d a _ n a _ a l ' a d a _ b a _ k o m a i": 1243,
      "n a _ a l ' a d a _ n a _ g a b a _ m a t s a k a i c i _ b a _ k o m a i _ ": 1244,
      "n a _ a l ' a d a _ n a _ a l ' a d a _ m a t s a k a i c i _ n a _ g a b a _ k a m a r _ y a d d a _ y a _ k a m a t a": 1245,
      "n a _ a l ' a d a _ k a m a r _ y a d d a _ y a _ k a m a t a _ d a i d a i _ m a t s a k a i c i _ ": 1246,
      "m u b a m b a n t a _ n a g a r i _ m u b a m b a n t a _ ": 1247,
      "m u b a m b a n t a _ m a i _ k y a u _ k y a k k y a w a _ ": 1248,
      "m u b a m b a n t a _ i n a _ s o _ k y a k y a w a n _ ": 1249,
      "m u b a m b a n t a _ i n a _ s o _ m a f i _ k y a u _ ": 1250,
      "m u b a m b a n t a _ n a g a r i _ k y a k k y a w a _ ": 1251,
      "m u b a m b a n t a _ k y a k y a w a n _ m a i _ d a d i _ ": 1252,
      "m u b a m b a n t a _ n a g a r i _ m a i _ k y a u": 1253,
      "m u b a m b a n t a _ k y a k y a w a n _ k y a k k y a w a _ ": 1254,
      "m u b a m b a n t a _ n a g a r i _ m a f i _ k y a u": 1255,
      "m u b a m b a n t a _ m u b a m b a n t a _ k y a k y a w a n _ ": 1256,
      "m u b a m b a n t a _ i n a _ s o _ k y a k k y a w a _ m a i _ d a d i _ ": 1257,
      "m u b a m b a n t a _ n a g a r i _ n a g a r i _ k y a k y a w a n _ ": 1258,
      "r a s h i n _ j i n _ d a d i _ m a f i _ m u n i _ b a _ k y a u _ b a _ ": 1259,
      "r a s h i n _ j i n _ d a d i _ m a i _ m u n i _ n a _ k y a m a _ ": 1260,
      "r a s h i n _ j i n _ d a d i _ m a i _ b a n ƙ y a m a _ n a _ k y a m a _ ": 1261,
      "r a s h i n _ j i n _ d a d i _ r a s h i n _ j i n _ d a d i _ n a _ k y a m a _ ": 1262,
      "r a s h i n _ j i n _ d a d i _ r a s h i n _ j i n _ d a d i _ m u m m u n a _ ": 1263,
      "r a s h i n _ j i n _ d a d i _ m u m m u n a _ a b i n _ t a k a i c i _ ": 1264,
      "r a s h i n _ j i n _ d a d i _ m a f i _ m u n i _ n a _ k y a m a _ ": 1265,
      "r a s h i n _ j i n _ d a d i _ r a s h i n _ j i n _ d a d i _ a b i n _ t a k a i c i": 1266,
      "r a s h i n _ j i n _ d a d i _ m a i _ m u n i _ a b i n _ t a k a i c i _ ": 1267,
      "r a s h i n _ j i n _ d a d i _ r a s h i n _ j i n _ d a d i _ b a _ k y a u _ b a _ ": 1268,
      "r a s h i n _ j i n _ d a d i _ n a _ k y a m a _ m u m m u n a _ ": 1269,
      "r a s h i n _ j i n _ d a d i _ m a i _ b a n ƙ y a m a _ a b i n _ t a k a i c i _ ": 1270,
      "r a s h i n _ j i n _ d a d i _ m a i _ m u n i _ m u m m u n a _ ": 1271,
      "r a s h i n _ j i n _ d a d i _ m u m m u n a _ n a _ k y a m a": 1272,
      "r a s h i n _ j i n _ d a d i _ r a s h i n _ j i n _ d a d i _ m a i _ b a n ƙ y a m a _ n a _ k y a m a _ ": 1273,
      "r a s h i n _ j i n _ d a d i _ m u m m u n a _ r a s h i n _ j i n _ d a d i": 1274,
      "r a s h i n _ j i n _ d a d i _ m a i _ b a n ƙ y a m a _ r a s h i n _ j i n _ d a d i _ ": 1275,
      "r a s h i n _ j i n _ d a d i _ r a s h i n _ j i n _ d a d i _ m a i _ b a n ƙ y a m a _ ": 1276,
      "r a s h i n _ j i n _ d a d i _ n a _ k y a m a _ m u m m u n a": 1277,
      "r a s h i n _ j i n _ d a d i _ n a _ k y a m a _ r a s h i n _ j i n _ d a d i _ m a i _ b a n ƙ y a m a": 1278,
      "r a s h i n _ j i n _ d a d i _ m a i _ b a n ƙ y a m a _ m a f i _ m u n i _ ": 1279,
      "r a s h i n _ j i n _ d a d i _ m a f i _ m u n i _ a b i n _ t a k a i c i": 1280,
      "r a s h i n _ j i n _ d a d i _ m u m m u n a _ m a i _ b a n ƙ y a m a _ n a _ k y a m a _ m a i _ b a n ƙ y a m a": 1281,
      "r a s h i n _ j i n _ d a d i _ m a i _ b a n ƙ y a m a _ m u m m u n a _ m a i _ b a n ƙ y a m a _ m a f i _ m u n i": 1282,
      "m a i _ m u n i _ m u m m u n a _ b a _ k y a u _ b a _ ": 1283,
      "m a i _ m u n i _ m a i _ m u n i _ n a _ k y a m a _ ": 1284,
      "m a i _ m u n i _ m a f i _ m u n i _ m a i _ b a n ƙ y a m a": 1285,
      "m a i _ m u n i _ m a f i _ m u n i _ r a s h i n _ j i n _ d a d i": 1286,
      "m a i _ m u n i _ r a s h i n _ j i n _ d a d i _ m u m m u n a _ ": 1287,
      "m a i _ m u n i _ r a s h i n _ j i n _ d a d i _ a b i n _ t a k a i c i _ ": 1288,
      "m a i _ m u n i _ m u m m u n a _ a b i n _ t a k a i c i _ ": 1289,
      "m a i _ m u n i _ n a _ k y a m a _ m u m m u n a _ ": 1290,
      "m a i _ m u n i _ m a f i _ m u n i _ n a _ k y a m a": 1291,
      "m a i _ m u n i _ m u m m u n a _ n a _ k y a m a": 1292,
      "m a i _ m u n i _ b a _ k y a u _ b a _ m a f i _ m u n i": 1293,
      "m a i _ m u n i _ n a _ k y a m a _ a b i n _ t a k a i c i": 1294,
      "m a i _ m u n i _ n a _ k y a m a _ m a i _ m u n i _ ": 1295,
      "m a i _ m u n i _ m u m m u n a _ m a i _ m u n i _ m a f i _ m u n i": 1296,
      "m a i _ m u n i _ n a _ k y a m a _ r a s h i n _ j i n _ d a d i _ m a f i _ m u n i _ n a _ k y a m a _ ": 1297,
      "m a i _ m u n i _ m a i _ m u n i _ m a i _ b a n ƙ y a m a _ a b i n _ t a k a i c i _ ": 1298,
      "m a i _ m u n i _ m u m m u n a _ r a s h i n _ j i n _ d a d i _ m a i _ m u n i": 1299,
      "m a f i _ k y a u _ m a f i _ k y a u _ m a i _ d a d i _ ": 1300,
      "m a f i _ k y a u _ m a i _ k y a u _ k y a k y a w a n _ ": 1301,
      "m a f i _ k y a u _ i n a _ s o _ m a i _ d a d i _ ": 1302,
      "m a f i _ k y a u _ m a i _ k y a u _ m a i _ k y a u _ ": 1303,
      "m a f i _ k y a u _ m a f i _ k y a u _ k y a k y a w a n _ ": 1304,
      "m a f i _ k y a u _ m u b a m b a n t a _ m a f i _ k y a u _ ": 1305,
      "m a f i _ k y a u _ m a f i _ k y a u _ k y a k k y a w a _ ": 1306,
      "m a f i _ k y a u _ k y a k y a w a n _ k y a k k y a w a _ ": 1307,
      "m a f i _ k y a u _ n a g a r i _ m a i _ d a d i": 1308,
      "m a f i _ k y a u _ m u b a m b a n t a _ i n a _ s o _ ": 1309,
      "m a f i _ k y a u _ m a f i _ k y a u _ m a f i _ k y a u _ ": 1310,
      "m a f i _ k y a u _ m u b a m b a n t a _ m a i _ d a d i": 1311,
      "m a f i _ k y a u _ m u b a m b a n t a _ m a f i _ k y a u": 1312,
      "m a f i _ k y a u _ i n a _ s o _ i n a _ s o": 1313,
      "m a f i _ k y a u _ m a i _ k y a u _ m u b a m b a n t a": 1314,
      "m a f i _ k y a u _ m a i _ k y a u _ m a f i _ k y a u _ m a i _ d a d i _ ": 1315,
      "m a f i _ k y a u _ i n a _ s o _ n a g a r i _ ": 1316,
      "m a f i _ k y a u _ m a i _ d a d i _ m a i _ d a d i": 1317,
      "m a f i _ k y a u _ i n a _ s o _ m a i _ k y a u _ i n a _ s o": 1318,
      "m a t s a k a i c i _ d a i d a i _ n a _ g a b a _ ": 1319,
      "m a t s a k a i c i _ d a i d a i _ k a m a r _ y a d d a _ y a _ k a m a t a _ ": 1320,
      "m a t s a k a i c i _ n a _ g a b a _ n a _ y a u _ d a _ k u l l u n _ ": 1321,
      "m a t s a k a i c i _ n a _ g a b a _ d a i d a i": 1322,
      "m a t s a k a i c i _ n a _ a l ' a d a _ n a _ k o w a": 1323,
      "m a t s a k a i c i _ m a t s a k a i c i _ n a _ k o w a": 1324,
      "m a t s a k a i c i _ n a _ g a b a _ n a _ g a b a _ n a _ y a u _ d a _ k u l l u n _ ": 1325,
      "m a t s a k a i c i _ d a i d a i _ n a _ k o w a _ ": 1326,
      "m a t s a k a i c i _ n a _ g a b a _ m a t s a k a i c i _ n a _ y a u _ d a _ k u l l u n _ ": 1327,
      "m a t s a k a i c i _ k a m a r _ y a d d a _ y a _ k a m a t a _ m a t s a k a i c i": 1328,
      "m a t s a k a i c i _ d a i d a i _ b a _ k o m a i _ b a _ k o m a i": 1329,
      "m a t s a k a i c i _ b a _ k o m a i _ n a _ g a b a _ b a _ k o m a i": 1330,
      "m a t s a k a i c i _ d a i d a i _ n a _ y a u _ d a _ k u l l u n _ b a _ k o m a i _ ": 1331,
      "m a t s a k a i c i _ n a _ g a b a _ d a i d a i _ d a i d a i": 1332,
      "n a _ g a b a _ d a i d a i _ n a _ g a b a _ ": 1333,
      "n a _ g a b a _ n a _ y a u _ d a _ k u l l u n _ d a i d a i _ ": 1334,
      "n a _ g a b a _ k a m a r _ y a d d a _ y a _ k a m a t a _ n a _ y a u _ d a _ k u l l u n _ ": 1335,
      "n a _ g a b a _ d a i d a i _ m a t s a k a i c i _ ": 1336,
      "n a _ g a b a _ k a m a r _ y a d d a _ y a _ k a m a t a _ n a _ a l ' a d a _ ": 1337,
      "n a _ g a b a _ d a i d a i _ n a _ a l ' a d a": 1338,
      "n a _ g a b a _ d a i d a i _ n a _ k o w a": 1339,
      "n a _ g a b a _ n a _ y a u _ d a _ k u l l u n _ n a _ a l ' a d a _ ": 1340,
      "n a _ g a b a _ n a _ y a u _ d a _ k u l l u n _ k a m a r _ y a d d a _ y a _ k a m a t a": 1341,
      "n a _ g a b a _ d a i d a i _ m a t s a k a i c i": 1342,
      "n a _ g a b a _ n a _ k o w a _ n a _ g a b a _ ": 1343,
      "n a _ g a b a _ n a _ k o w a _ n a _ k o w a _ d a i d a i": 1344,
      "n a _ g a b a _ b a _ k o m a i _ d a i d a i": 1345,
      "n a _ g a b a _ n a _ a l ' a d a _ n a _ g a b a": 1346,
      "n a _ g a b a _ d a i d a i _ n a _ y a u _ d a _ k u l l u n _ n a _ g a b a": 1347,
      "n a _ g a b a _ d a i d a i _ k a m a r _ y a d d a _ y a _ k a m a t a": 1348,
      "n a _ g a b a _ b a _ k o m a i _ b a _ k o m a i _ n a _ g a b a _ ": 1349,
      "m a f i _ m u n i _ m u m m u n a _ b a _ k y a u _ b a _ ": 1350,
      "m a f i _ m u n i _ m a f i _ m u n i _ b a _ k y a u _ b a _ ": 1351,
      "m a f i _ m u n i _ m a f i _ m u n i _ a b i n _ t a k a i c i _ ": 1352,
      "m a f i _ m u n i _ m a i _ b a n ƙ y a m a _ m a i _ b a n ƙ y a m a _ ": 1353,
      "m a f i _ m u n i _ r a s h i n _ j i n _ d a d i _ n a _ k y a m a _ ": 1354,
      "m a f i _ m u n i _ b a _ k y a u _ b a _ a b i n _ t a k a i c i _ ": 1355,
      "m a f i _ m u n i _ m u m m u n a _ a b i n _ t a k a i c i _ ": 1356,
      "m a f i _ m u n i _ m a f i _ m u n i _ n a _ k y a m a _ ": 1357,
      "m a f i _ m u n i _ m a i _ m u n i _ a b i n _ t a k a i c i _ ": 1358,
      "m a f i _ m u n i _ n a _ k y a m a _ b a _ k y a u _ b a": 1359,
      "m a f i _ m u n i _ b a _ k y a u _ b a _ m u m m u n a _ ": 1360,
      "m a f i _ m u n i _ m a i _ m u n i _ b a _ k y a u _ b a _ ": 1361,
      "m a f i _ m u n i _ m u m m u n a _ n a _ k y a m a": 1362,
      "m a f i _ m u n i _ r a s h i n _ j i n _ d a d i _ r a s h i n _ j i n _ d a d i _ m u m m u n a _ ": 1363,
      "m a f i _ m u n i _ m a f i _ m u n i _ m a i _ b a n ƙ y a m a _ ": 1364,
      "m a f i _ m u n i _ m a i _ m u n i _ m u m m u n a": 1365,
      "m a f i _ m u n i _ n a _ k y a m a _ m a i _ m u n i _ a b i n _ t a k a i c i": 1366,
      "m a f i _ m u n i _ m a f i _ m u n i _ b a _ k y a u _ b a _ a b i n _ t a k a i c i": 1367,
      "m a f i _ m u n i _ m u m m u n a _ r a s h i n _ j i n _ d a d i _ a b i n _ t a k a i c i": 1368,
      "k y a k y a w a n _ i n a _ s o _ m a f i _ k y a u _ ": 1369,
      "k y a k y a w a n _ n a g a r i _ k y a k k y a w a _ ": 1370,
      "k y a k y a w a n _ m a f i _ k y a u _ m a i _ d a d i _ ": 1371,
      "k y a k y a w a n _ i n a _ s o _ m a i _ d a d i _ ": 1372,
      "k y a k y a w a n _ n a g a r i _ m a i _ k y a u": 1373,
      "k y a k y a w a n _ m a i _ k y a u _ m a i _ k y a u _ ": 1374,
      "k y a k y a w a n _ m a f i _ k y a u _ k y a k y a w a n _ ": 1375,
      "k y a k y a w a n _ k y a k y a w a n _ k y a k k y a w a _ ": 1376,
      "k y a k y a w a n _ m u b a m b a n t a _ i n a _ s o _ ": 1377,
      "k y a k y a w a n _ m u b a m b a n t a _ k y a k y a w a n _ ": 1378,
      "k y a k y a w a n _ k y a k y a w a n _ n a g a r i _ ": 1379,
      "k y a k y a w a n _ n a g a r i _ k y a k k y a w a _ m a i _ k y a u": 1380,
      "k y a k y a w a n _ m a i _ k y a u _ k y a k y a w a n _ k y a k y a w a n _ ": 1381,
      "k y a k y a w a n _ k y a k y a w a n _ n a g a r i": 1382,
      "k y a k y a w a n _ k y a k y a w a n _ k y a k y a w a n _ m a i _ d a d i": 1383,
      "k y a k y a w a n _ i n a _ s o _ m a i _ k y a u _ k y a k y a w a n _ k y a k y a w a n _ ": 1384,
      "k y a k y a w a n _ m a i _ k y a u _ k y a k y a w a n _ k y a k k y a w a": 1385,
      "k y a k y a w a n _ i n a _ s o _ k y a k k y a w a _ k y a k y a w a n": 1386,
      "k y a k y a w a n _ m a f i _ k y a u _ m a i _ k y a u _ k y a k k y a w a": 1387,
      "n a _ k y a m a _ m a f i _ m u n i _ b a _ k y a u _ b a _ ": 1388,
      "n a _ k y a m a _ m a i _ m u n i _ n a _ k y a m a _ ": 1389,
      "n a _ k y a m a _ n a _ k y a m a _ a b i n _ t a k a i c i _ ": 1390,
      "n a _ k y a m a _ m a f i _ m u n i _ m a i _ b a n ƙ y a m a": 1391,
      "n a _ k y a m a _ m a i _ m u n i _ m a i _ b a n ƙ y a m a _ ": 1392,
      "n a _ k y a m a _ m a i _ m u n i _ n a _ k y a m a": 1393,
      "n a _ k y a m a _ b a _ k y a u _ b a _ a b i n _ t a k a i c i _ ": 1394,
      "n a _ k y a m a _ r a s h i n _ j i n _ d a d i _ a b i n _ t a k a i c i": 1395,
      "n a _ k y a m a _ m a i _ m u n i _ a b i n _ t a k a i c i _ ": 1396,
      "n a _ k y a m a _ m a i _ m u n i _ m a i _ m u n i": 1397,
      "n a _ k y a m a _ b a _ k y a u _ b a _ n a _ k y a m a": 1398,
      "n a _ k y a m a _ m u m m u n a _ n a _ k y a m a _ ": 1399,
      "n a _ k y a m a _ m a i _ b a n ƙ y a m a _ m a f i _ m u n i": 1400,
      "n a _ k y a m a _ m a i _ m u n i _ m a i _ b a n ƙ y a m a": 1401,
      "n a _ k y a m a _ b a _ k y a u _ b a _ b a _ k y a u _ b a": 1402,
      "n a _ k o w a _ n a _ y a u _ d a _ k u l l u n _ b a _ k o m a i _ ": 1403,
      "n a _ k o w a _ n a _ k o w a _ m a t s a k a i c i _ ": 1404,
      "n a _ k o w a _ d a i d a i _ d a i d a i _ ": 1405,
      "n a _ k o w a _ n a _ y a u _ d a _ k u l l u n _ d a i d a i _ ": 1406,
      "n a _ k o w a _ n a _ g a b a _ n a _ k o w a _ ": 1407,
      "n a _ k o w a _ d a i d a i _ m a t s a k a i c i _ ": 1408,
      "n a _ k o w a _ d a i d a i _ k a m a r _ y a d d a _ y a _ k a m a t a _ ": 1409,
      "n a _ k o w a _ n a _ k o w a _ n a _ k o w a _ ": 1410,
      "n a _ k o w a _ m a t s a k a i c i _ b a _ k o m a i _ ": 1411,
      "n a _ k o w a _ d a i d a i _ m a t s a k a i c i": 1412,
      "n a _ k o w a _ n a _ g a b a _ n a _ g a b a": 1413,
      "n a _ k o w a _ n a _ y a u _ d a _ k u l l u n _ d a i d a i": 1414,
      "n a _ k o w a _ n a _ y a u _ d a _ k u l l u n _ n a _ a l ' a d a": 1415,
      "n a _ k o w a _ n a _ g a b a _ k a m a r _ y a d d a _ y a _ k a m a t a _ ": 1416,
      "n a _ k o w a _ n a _ y a u _ d a _ k u l l u n _ k a m a r _ y a d d a _ y a _ k a m a t a _ n a _ y a u _ d a _ k u l l u n _ ": 1417,
      "n a _ k o w a _ n a _ k o w a _ n a _ k o w a _ k a m a r _ y a d d a _ y a _ k a m a t a": 1418,
      "b a _ k y a u _ b a _ m u m m u n a _ b a _ k y a u _ b a _ ": 1419,
      "b a _ k y a u _ b a _ r a s h i n _ j i n _ d a d i _ r a s h i n _ j i n _ d a d i _ ": 1420,
      "b a _ k y a u _ b a _ m a i _ b a n ƙ y a m a _ m a i _ b a n ƙ y a m a _ ": 1421,
      "b a _ k y a u _ b a _ r a s h i n _ j i n _ d a d i _ n a _ k y a m a _ ": 1422,
      "b a _ k y a u _ b a _ r a s h i n _ j i n _ d a d i _ m u m m u n a _ ": 1423,
      "b a _ k y a u _ b a _ m a i _ m u n i _ n a _ k y a m a": 1424,
      "b a _ k y a u _ b a _ m a i _ m u n i _ m a i _ m u n i _ ": 1425,
      "b a _ k y a u _ b a _ r a s h i n _ j i n _ d a d i _ a b i n _ t a k a i c i": 1426,
      "b a _ k y a u _ b a _ m a i _ m u n i _ a b i n _ t a k a i c i _ ": 1427,
      "b a _ k y a u _ b a _ r a s h i n _ j i n _ d a d i _ b a _ k y a u _ b a _ ": 1428,
      "b a _ k y a u _ b a _ n a _ k y a m a _ m u m m u n a _ ": 1429,
      "b a _ k y a u _ b a _ m a f i _ m u n i _ m u m m u n a _ ": 1430,
      "b a _ k y a u _ b a _ m a i _ b a n ƙ y a m a _ a b i n _ t a k a i c i _ ": 1431,
      "b a _ k y a u _ b a _ m u m m u n a _ m u m m u n a": 1432,
      "b a _ k y a u _ b a _ b a _ k y a u _ b a _ m u m m u n a": 1433,
      "b a _ k y a u _ b a _ r a s h i n _ j i n _ d a d i _ n a _ k y a m a _ a b i n _ t a k a i c i": 1434,
      "b a _ k y a u _ b a _ m a i _ m u n i _ b a _ k y a u _ b a _ a b i n _ t a k a i c i _ a b i n _ t a k a i c i _ ": 1435,
      "b a _ k y a u _ b a _ m a i _ b a n ƙ y a m a _ m u m m u n a _ m u m m u n a": 1436,
      "i n a _ s o _ i n a _ s o _ k y a k y a w a n _ ": 1437,
      "i n a _ s o _ i n a _ s o _ m a f i _ k y a u _ ": 1438,
      "i n a _ s o _ i n a _ s o _ m a i _ d a d i _ ": 1439,
      "i n a _ s o _ n a g a r i _ m a i _ k y a u": 1440,
      "i n a _ s o _ m a i _ k y a u _ m a i _ k y a u _ ": 1441,
      "i n a _ s o _ n a g a r i _ m a i _ d a d i": 1442,
      "i n a _ s o _ m u b a m b a n t a _ k y a k y a w a n _ ": 1443,
      "i n a _ s o _ m u b a m b a n t a _ m a i _ k y a u": 1444,
      "i n a _ s o _ i n a _ s o _ m a f i _ k y a u": 1445,
      "i n a _ s o _ m u b a m b a n t a _ n a g a r i": 1446,
      "i n a _ s o _ i n a _ s o _ k y a k k y a w a": 1447,
      "i n a _ s o _ m a i _ k y a u _ m a i _ k y a u": 1448,
      "i n a _ s o _ k y a k y a w a n _ m u b a m b a n t a _ m u b a m b a n t a _ ": 1449,
      "i n a _ s o _ k y a k k y a w a _ m a i _ d a d i _ m a i _ k y a u _ ": 1450,
      "m u m m u n a _ m a f i _ m u n i _ b a _ k y a u _ b a _ ": 1451,
      "m u m m u n a _ r a s h i n _ j i n _ d a d i _ r a s h i n _ j i n _ d a d i _ ": 1452,
      "m u m m u n a _ m u m m u n a ": 1453,
      "m u m m u n a _ m a f i _ m u n i _ m a i _ b a n ƙ y a m a": 1454,
      "m u m m u n a _ m a i _ b a n ƙ y a m a _ m a i _ b a n ƙ y a m a _ ": 1455,
      "m u m m u n a _ r a s h i n _ j i n _ d a d i _ m a i _ b a n ƙ y a m a": 1456,
      "m u m m u n a _ n a _ k y a m a _ b a _ k y a u _ b a": 1457,
      "m u m m u n a _ b a _ k y a u _ b a _ m u m m u n a _ ": 1458,
      "m u m m u n a _ m a i _ m u n i _ m u m m u n a _ ": 1459,
      "m u m m u n a _ m u m m u n a _ m u m m u n a": 1460,
      "m u m m u n a _ m a i _ m u n i _ m a i _ b a n ƙ y a m a": 1461,
      "m u m m u n a _ m a i _ m u n i _ m a f i _ m u n i _ n a _ k y a m a": 1462,
      "m u m m u n a _ m a i _ b a n ƙ y a m a _ b a _ k y a u _ b a": 1463,
      "m u m m u n a _ m u m m u n a _ a b i n _ t a k a i c i": 1464,
      "m u m m u n a _ b a _ k y a u _ b a _ n a _ k y a m a _ m a i _ m u n i": 1465,
      "m u m m u n a _ m a i _ b a n ƙ y a m a _ m a i _ m u n i _ m a f i _ m u n i": 1466,
      "## a _ k a m a r _ y a d d a _ y a _ k a m a t a _ d a i d a i": 1467,
      "##m u b a m b a n t a _ k y a k k y a w a _ k y a k y a w a n": 1468,
      "##m u b a m b a n t a _ k y a k k y a w a _ m u b a m b a n t a": 1469,
      "##m u b a m b a n t a _ k y a k k y a w a _ m a i _ d a d i": 1470,
      "##m u b a m b a n t a _ k y a k k y a w a _ k y a k k y a w a": 1471,
      "##m u b a m b a n t a _ k y a k k y a w a _ m u b a m b a n t a _ n a g a r i": 1472,
      "##m u b a m b a n t a _ k y a k k y a w a _ m a i _ d a d i _ m a i _ k y a u _ n a g a r i": 1473,
      "##m u b a m b a n t a _ k y a k k y a w a _ m a i _ d a d i _ i n a _ s o _ m a f i _ k y a u": 1474,
      "##m u b a m b a n t a _ k y a k k y a w a _ m u b a m b a n t a _ k y a k k y a w a _ k y a k y a w a n": 1475,
      "##n a g a r i _ m u b a m b a n t a _ k y a k y a w a n": 1476,
      "##n a g a r i _ m u b a m b a n t a _ m a i _ d a d i": 1477,
      "##n a g a r i _ m u b a m b a n t a _ m a i _ d a d i _ m a i _ k y a u _ ": 1478,
      "##n a g a r i _ m u b a m b a n t a _ k y a k y a w a n _ m a i _ d a d i": 1479,
      "##n a g a r i _ m u b a m b a n t a _ m a i _ d a d i _ m a i _ k y a u": 1480,
      "##n a g a r i _ m u b a m b a n t a _ k y a k y a w a n _ m a i _ d a d i _ n a g a r i": 1481,
      "##m a i _ d a d i _ m a i _ k y a u _ m u b a m b a n t a": 1482,
      "##m a i _ d a d i _ m a i _ k y a u _ k y a k y a w a n _ m a i _ k y a u _ n a g a r i": 1483,
      "##m a i _ d a d i _ m a i _ k y a u _ i n a _ s o _ k y a k y a w a n": 1484,
      "##m u m m u n a _ b a _ k y a u _ b a _ m a i _ b a n ƙ y a m a": 1485,
      "##m u m m u n a _ b a _ k y a u _ b a _ m a i _ m u n i _ n a _ k y a m a": 1486,
      "##m u m m u n a _ b a _ k y a u _ b a _ r a s h i n _ j i n _ d a d i _ m a i _ b a n ƙ y a m a _ r a s h i n _ j i n _ d a d i": 1487,
      "##m u m m u n a _ b a _ k y a u _ b a _ n a _ k y a m a _ r a s h i n _ j i n _ d a d i": 1488,
      "##m u m m u n a _ b a _ k y a u _ b a _ b a _ k y a u _ b a _ n a _ k y a m a _ m a i _ m u n i": 1489,
      "##m a i _ k y a u _ k y a k k y a w a _ i n a _ s o": 1490,
      "##m a i _ k y a u _ k y a k k y a w a _ k y a k k y a w a": 1491,
      "##m a i _ k y a u _ k y a k k y a w a _ k y a k k y a w a _ k y a k k y a w a": 1492,
      "##m a i _ k y a u _ k y a k k y a w a _ m a i _ d a d i _ m a i _ k y a u _ n a g a r i": 1493,
      "##m a i _ k y a u _ k y a k k y a w a _ k y a k k y a w a _ n a g a r i _ m a i _ k y a u": 1494,
      "##m a i _ k y a u _ k y a k k y a w a _ m a i _ d a d i _ k y a k k y a w a _ k y a k k y a w a": 1495,
      "##n a _ y a u _ d a _ k u l l u n _ b a _ k o m a i _ k a m a r _ y a d d a _ y a _ k a m a t a": 1496,
      "##n a _ y a u _ d a _ k u l l u n _ b a _ k o m a i _ n a _ y a u _ d a _ k u l l u n": 1497,
      "##n a _ y a u _ d a _ k u l l u n _ b a _ k o m a i _ d a i d a i _ n a _ y a u _ d a _ k u l l u n _ ": 1498,
      "##n a _ y a u _ d a _ k u l l u n _ b a _ k o m a i _ n a _ g a b a _ k a m a r _ y a d d a _ y a _ k a m a t a": 1499,
      "##n a _ y a u _ d a _ k u l l u n _ b a _ k o m a i _ b a _ k o m a i _ d a i d a i": 1500,
      "##n a _ k o w a _ m a t s a k a i c i _ d a i d a i": 1501,
      "##n a _ k o w a _ m a t s a k a i c i _ k a m a r _ y a d d a _ y a _ k a m a t a": 1502,
      "##n a _ k o w a _ m a t s a k a i c i _ m a t s a k a i c i _ n a _ g a b a": 1503,
      "##n a _ k o w a _ m a t s a k a i c i _ n a _ k o w a _ n a _ g a b a": 1504,
      "##n a _ k o w a _ m a t s a k a i c i _ d a i d a i _ n a _ g a b a": 1505,
      "##i n a _ s o _ k y a k y a w a n _ m u b a m b a n t a": 1506,
      "##i n a _ s o _ k y a k y a w a n _ n a g a r i": 1507,
      "##i n a _ s o _ k y a k y a w a n _ i n a _ s o _ k y a k k y a w a _ ": 1508,
      "##i n a _ s o _ m a f i _ k y a u _ m a i _ k y a u": 1509,
      "##i n a _ s o _ m a f i _ k y a u _ n a g a r i _ m a i _ d a d i": 1510,
      "##i n a _ s o _ m a f i _ k y a u _ k y a k k y a w a _ m u b a m b a n t a": 1511,
      "##i n a _ s o _ m a f i _ k y a u _ i n a _ s o _ n a g a r i _ m u b a m b a n t a": 1512,
      "##m a f i _ m u n i _ b a _ k y a u _ b a _ m a i _ b a n ƙ y a m a": 1513,
      "##m a f i _ m u n i _ b a _ k y a u _ b a _ m a f i _ m u n i": 1514,
      "##m a f i _ m u n i _ b a _ k y a u _ b a _ n a _ k y a m a": 1515,
      "##m a f i _ m u n i _ b a _ k y a u _ b a _ m u m m u n a _ m u m m u n a": 1516,
      "##m a f i _ m u n i _ b a _ k y a u _ b a _ m a f i _ m u n i _ b a _ k y a u _ b a": 1517,
      "##m a f i _ m u n i _ b a _ k y a u _ b a _ n a _ k y a m a _ m a f i _ m u n i _ m a f i _ m u n i": 1518,
      "##d a i d a i _ d a i d a i _ n a _ g a b a": 1519,
      "##d a i d a i _ d a i d a i _ k a m a r _ y a d d a _ y a _ k a m a t a": 1520,
      "##d a i d a i _ b a _ k o m a i _ n a _ g a b a": 1521,
      "##d a i d a i _ b a _ k o m a i _ n a _ k o w a": 1522,
      "##d a i d a i _ b a _ k o m a i _ k a m a r _ y a d d a _ y a _ k a m a t a": 1523,
      "##d a i d a i _ b a _ k o m a i _ k a m a r _ y a d d a _ y a _ k a m a t a _ n a _ y a u _ d a _ k u l l u n _ k a m a r _ y a d d a _ y a _ k a m a t a": 1524,
      "##d a i d a i _ b a _ k o m a i _ k a m a r _ y a d d a _ y a _ k a m a t a _ k a m a r _ y a d d a _ y a _ k a m a t a": 1525,
      "##n a g a r i _ k y a k k y a w a _ m a f i _ k y a u _ n a g a r i": 1526,
      "##n a g a r i _ k y a k k y a w a _ m a i _ d a d i _ i n a _ s o": 1527,
      "##n a g a r i _ k y a k k y a w a _ m a i _ d a d i _ m a i _ d a d i _ n a g a r i": 1528,
      "##m a f i _ k y a u _ m a i _ d a d i _ m a i _ k y a u": 1529,
      "##m a f i _ k y a u _ m a i _ d a d i _ n a g a r i _ k y a k k y a w a": 1530,
      "##m a f i _ k y a u _ m a i _ d a d i _ m a i _ d a d i _ k y a k k y a w a _ n a g a r i": 1531,
      "##r a s h i n _ j i n _ d a d i _ r a s h i n _ j i n _ d a d i _ m a f i _ m u n i _ r a s h i n _ j i n _ d a d i": 1532,
      "##r a s h i n _ j i n _ d a d i _ r a s h i n _ j i n _ d a d i _ m a i _ m u n i _ m a i _ m u n i": 1533,
      "##m a i _ m u n i _ n a _ k y a m a _ m a i _ b a n ƙ y a m a": 1534,
      "##m a i _ m u n i _ n a _ k y a m a _ m a i _ m u n i _ n a _ k y a m a": 1535,
      "##m a i _ m u n i _ n a _ k y a m a _ m a f i _ m u n i _ n a _ k y a m a": 1536,
      "##m a i _ m u n i _ n a _ k y a m a _ m a i _ m u n i _ m u m m u n a": 1537,
      "##m a i _ m u n i _ n a _ k y a m a _ r a s h i n _ j i n _ d a d i _ n a _ k y a m a _ b a _ k y a u _ b a": 1538,
      "##m a i _ m u n i _ n a _ k y a m a _ m a i _ b a n ƙ y a m a _ r a s h i n _ j i n _ d a d i _ r a s h i n _ j i n _ d a d i": 1539,
      "##m a i _ m u n i _ n a _ k y a m a _ m u m m u n a _ m a i _ m u n i": 1540,
      "##m a i _ k y a u _ k y a k y a w a n _ k y a k k y a w a _ m a i _ k y a u _ n a g a r i": 1541,
      "##i n a _ s o _ m a i _ d a d i _ k y a k y a w a n": 1542,
      "##i n a _ s o _ m a i _ d a d i _ m a i _ k y a u": 1543,
      "##i n a _ s o _ m a i _ d a d i _ m u b a m b a n t a _ m a i _ k y a u": 1544,
      "##n a _ y a u _ d a _ k u l l u n _ d a i d a i _ k a m a r _ y a d d a _ y a _ k a m a t a": 1545,
      "##n a _ y a u _ d a _ k u l l u n _ d a i d a i _ k a m a r _ y a d d a _ y a _ k a m a t a _ b a _ k o m a i": 1546,
      "##n a _ g a b a _ b a _ k o m a i _ d a i d a i": 1547,
      "##n a _ g a b a _ b a _ k o m a i _ b a _ k o m a i _ b a _ k o m a i": 1548,
      "##n a _ g a b a _ b a _ k o m a i _ d a i d a i _ d a i d a i _ n a _ g a b a": 1549,
      "##m a i _ b a n ƙ y a m a _ n a _ k y a m a _ b a _ k y a u _ b a _ b a _ k y a u _ b a": 1550,
      "##m a i _ b a n ƙ y a m a _ n a _ k y a m a _ m a i _ m u n i _ a b i n _ t a k a i c i": 1551,
      "##n a _ k y a m a _ a b i n _ t a k a i c i _ m u m m u n a _ n a _ k y a m a": 1552,
      "##n a _ k y a m a _ a b i n _ t a k a i c i _ r a s h i n _ j i n _ d a d i _ m a f i _ m u n i": 1553,
      "##k y a k y a w a n _ m a i _ d a d i _ m a i _ d a d i": 1554,
      "##k y a k y a w a n _ m a i _ d a d i _ i n a _ s o _ m u b a m b a n t a": 1555,
      "##m a t s a k a i c i _ m a t s a k a i c i _ n a _ g a b a _ n a _ a l ' a d a": 1556,
      "##m a t s a k a i c i _ m a t s a k a i c i _ n a _ y a u _ d a _ k u l l u n _ b a _ k o m a i _ n a _ y a u _ d a _ k u l l u n": 1557,
      "##m a t s a k a i c i _ m a t s a k a i c i _ d a i d a i _ b a _ k o m a i _ n a _ k o w a": 1558,
      "##i n a _ s o _ k y a k k y a w a _ m a f i _ k y a u": 1559,
      "##i n a _ s o _ k y a k k y a w a _ m u b a m b a n t a _ k y a k y a w a n": 1560,
      "##i n a _ s o _ i n a _ s o _ m a f i _ k y a u": 1561,
      "##i n a _ s o _ i n a _ s o _ k y a k k y a w a": 1562,
      "##i n a _ s o _ i n a _ s o _ m u b a m b a n t a _ i n a _ s o": 1563,
      "##i n a _ s o _ i n a _ s o _ i n a _ s o _ k y a k y a w a n _ i n a _ s o": 1564,
      "##i n a _ s o _ i n a _ s o _ m u b a m b a n t a _ m u b a m b a n t a _ m u b a m b a n t a": 1565,
      "##n a _ g a b a _ n a _ k o w a _ n a _ a l ' a d a": 1566,
      "##n a _ g a b a _ n a _ k o w a _ n a _ g a b a": 1567,
      "##n a _ g a b a _ n a _ k o w a _ m a t s a k a i c i": 1568,
      "##n a _ g a b a _ n a _ k o w a _ n a _ a l ' a d a _ n a _ g a b a _ n a _ a l ' a d a": 1569,
      "##k a m a r _ y a d d a _ y a _ k a m a t a _ n a _ y a u _ d a _ k u l l u n _ n a _ a l ' a d a": 1570,
      "##m a f i _ m u n i _ a b i n _ t a k a i c i _ n a _ k y a m a": 1571,
      "##m a f i _ m u n i _ a b i n _ t a k a i c i _ n a _ k y a m a _ m u m m u n a _ ": 1572,
      "##m a f i _ m u n i _ a b i n _ t a k a i c i _ r a s h i n _ j i n _ d a d i _ m u m m u n a": 1573,
      "##m a f i _ m u n i _ a b i n _ t a k a i c i _ m u m m u n a _ m a f i _ m u n i": 1574,
      "##m a f i _ m u n i _ a b i n _ t a k a i c i _ m a f i _ m u n i _ a b i n _ t a k a i c i": 1575,
      "##m a f i _ m u n i _ a b i n _ t a k a i c i _ n a _ k y a m a _ m a f i _ m u n i _ n a _ k y a m a": 1576,
      "##m a f i _ m u n i _ a b i n _ t a k a i c i _ m a f i _ m u n i _ m a f i _ m u n i _ r a s h i n _ j i n _ d a d i": 1577,
      "##m a i _ k y a u _ m a i _ k y a u _ m a i _ k y a u": 1578,
      "##m a i _ k y a u _ m a i _ k y a u _ n a g a r i _ k y a k k y a w a": 1579,
      "##m a i _ k y a u _ m a i _ k y a u _ i n a _ s o _ m a f i _ k y a u": 1580,
      "##d a i d a i _ m a t s a k a i c i _ n a _ k o w a": 1581,
      "##d a i d a i _ m a t s a k a i c i _ n a _ a l ' a d a _ m a t s a k a i c i": 1582,
      "##d a i d a i _ k a m a r _ y a d d a _ y a _ k a m a t a _ m a t s a k a i c i": 1583,
      "##d a i d a i _ k a m a r _ y a d d a _ y a _ k a m a t a _ n a _ y a u _ d a _ k u l l u n": 1584,
      "##d a i d a i _ k a m a r _ y a d d a _ y a _ k a m a t a _ n a _ k o w a _ k a m a r _ y a d d a _ y a _ k a m a t a": 1585,
      "##d a i d a i _ k a m a r _ y a d d a _ y a _ k a m a t a _ d a i d a i _ k a m a r _ y a d d a _ y a _ k a m a t a _ n a _ k o w a": 1586,
      "##m a f i _ k y a u _ k y a k y a w a n _ m a i _ k y a u": 1587,
      "##m a f i _ k y a u _ k y a k y a w a n _ m a f i _ k y a u _ k y a k k y a w a _ ": 1588,
      "##m a f i _ k y a u _ k y a k y a w a n _ n a g a r i _ m a i _ d a d i _ ": 1589,
      "##m a f i _ m u n i _ r a s h i n _ j i n _ d a d i _ a b i n _ t a k a i c i": 1590,
      "##n a _ k o w a _ n a _ k o w a _ m a t s a k a i c i": 1591,
      "##n a _ k o w a _ n a _ k o w a _ n a _ a l ' a d a _ m a t s a k a i c i": 1592,
      "##m a i _ b a n ƙ y a m a _ m a i _ b a n ƙ y a m a _ m a i _ b a n ƙ y a m a": 1593,
      "##m a i _ b a n ƙ y a m a _ m a i _ b a n ƙ y a m a _ b a _ k y a u _ b a": 1594,
      "##m a i _ b a n ƙ y a m a _ m a i _ b a n ƙ y a m a _ m a i _ b a n ƙ y a m a _ m a i _ b a n ƙ y a m a _ m a i _ b a n ƙ y a m a": 1595,
      "##k a m a r _ y a d d a _ y a _ k a m a t a _ n a _ a l ' a d a _ m a t s a k a i c i _ n a _ a l ' a d a _ ": 1596,
      "##k a m a r _ y a d d a _ y a _ k a m a t a _ n a _ a l ' a d a _ n a _ a l ' a d a _ n a _ k o w a": 1597,
      "n a g a r i _ k y a k y a w a n _ k y a k y a w a n": 1598,
      "n a g a r i _ k y a k y a w a n _ i n a _ s o": 1599,
      "n a g a r i _ k y a k y a w a n _ k y a k k y a w a": 1600,
      "n a g a r i _ k y a k y a w a n _ n a g a r i _ k y a k y a w a n _ ": 1601,
      "n a g a r i _ k y a k y a w a n _ m a i _ k y a u _ i n a _ s o _ ": 1602,
      "n a g a r i _ k y a k y a w a n _ m a i _ k y a u _ k y a k k y a w a _ n a g a r i": 1603,
      "n a g a r i _ k y a k y a w a n _ m a i _ k y a u _ n a g a r i _ k y a k y a w a n _ ": 1604,
      "n a g a r i _ k y a k y a w a n _ k y a k y a w a n _ m u b a m b a n t a": 1605,
      "n a g a r i _ k y a k y a w a n _ k y a k y a w a n _ m a i _ d a d i _ m a i _ k y a u _ ": 1606,
      "n a g a r i _ k y a k y a w a n _ m a i _ k y a u _ i n a _ s o _ i n a _ s o _ ": 1607,
      "n a _ y a u _ d a _ k u l l u n _ m a t s a k a i c i _ n a _ a l ' a d a": 1608,
      "n a _ y a u _ d a _ k u l l u n _ m a t s a k a i c i _ b a _ k o m a i": 1609,
      "n a _ y a u _ d a _ k u l l u n _ m a t s a k a i c i _ n a _ k o w a": 1610,
      "n a _ y a u _ d a _ k u l l u n _ m a t s a k a i c i _ n a _ k o w a _ n a _ a l ' a d a _ ": 1611,
      "n a _ y a u _ d a _ k u l l u n _ m a t s a k a i c i _ n a _ k o w a _ b a _ k o m a i _ ": 1612,
      "n a _ y a u _ d a _ k u l l u n _ m a t s a k a i c i _ b a _ k o m a i _ n a _ y a u _ d a _ k u l l u n": 1613,
      "n a _ y a u _ d a _ k u l l u n _ m a t s a k a i c i _ n a _ a l ' a d a _ n a _ g a b a _ n a _ a l ' a d a _ ": 1614,
      "n a _ y a u _ d a _ k u l l u n _ m a t s a k a i c i _ d a i d a i _ k a m a r _ y a d d a _ y a _ k a m a t a _ m a t s a k a i c i": 1615,
      "k y a k k y a w a _ k y a k y a w a n _ k y a k y a w a n": 1616,
      "k y a k k y a w a _ k y a k y a w a n _ n a g a r i _ m u b a m b a n t a": 1617,
      "k y a k k y a w a _ k y a k y a w a n _ m u b a m b a n t a _ i n a _ s o _ ": 1618,
      "k y a k k y a w a _ k y a k y a w a n _ m a i _ k y a u _ m a f i _ k y a u": 1619,
      "k y a k k y a w a _ k y a k y a w a n _ k y a k y a w a n _ m u b a m b a n t a _ m u b a m b a n t a _ ": 1620,
      "k y a k k y a w a _ k y a k y a w a n _ n a g a r i _ n a g a r i _ m u b a m b a n t a _ ": 1621,
      "k y a k k y a w a _ k y a k y a w a n _ m a i _ k y a u _ n a g a r i _ m u b a m b a n t a _ ": 1622,
      "k y a k k y a w a _ k y a k y a w a n _ k y a k y a w a n _ k y a k y a w a n _ ": 1623,
      "##n a _ k o w a _ k a m a r _ y a d d a _ y a _ k a m a t a _ n a _ k o w a": 1624,
      "##n a _ k o w a _ k a m a r _ y a d d a _ y a _ k a m a t a _ n a _ g a b a _ n a _ g a b a": 1625,
      "##n a _ k o w a _ k a m a r _ y a d d a _ y a _ k a m a t a _ b a _ k o m a i _ k a m a r _ y a d d a _ y a _ k a m a t a": 1626,
      "##d a i d a i _ n a _ y a u _ d a _ k u l l u n _ n a _ g a b a _ n a _ k o w a _ n a _ a l ' a d a": 1627,
      "##m u b a m b a n t a _ m a i _ d a d i _ k y a k k y a w a": 1628,
      "##m u b a m b a n t a _ m a i _ d a d i _ k y a k k y a w a _ m a i _ k y a u": 1629,
      "##m u b a m b a n t a _ m a i _ d a d i _ i n a _ s o _ m a i _ d a d i": 1630,
      "##m u b a m b a n t a _ m a i _ d a d i _ m u b a m b a n t a _ m a f i _ k y a u _ m a f i _ k y a u": 1631,
      "##m u b a m b a n t a _ m a f i _ k y a u _ i n a _ s o": 1632,
      "##m u b a m b a n t a _ m a f i _ k y a u _ m a i _ d a d i": 1633,
      "##m u b a m b a n t a _ m a f i _ k y a u _ m a i _ k y a u _ n a g a r i": 1634,
      "##m u b a m b a n t a _ m a f i _ k y a u _ m a f i _ k y a u _ k y a k y a w a n _ m a i _ k y a u": 1635,
      "##m a f i _ k y a u _ k y a k k y a w a _ k y a k y a w a n": 1636,
      "##r a s h i n _ j i n _ d a d i _ n a _ k y a m a _ m a i _ m u n i _ m a i _ m u n i": 1637,
      "##r a s h i n _ j i n _ d a d i _ n a _ k y a m a _ m a f i _ m u n i _ b a _ k y a u _ b a _ b a _ k y a u _ b a": 1638,
      "##r a s h i n _ j i n _ d a d i _ m u m m u n a _ m a i _ b a n ƙ y a m a": 1639,
      "##r a s h i n _ j i n _ d a d i _ m u m m u n a _ b a _ k y a u _ b a": 1640,
      "##r a s h i n _ j i n _ d a d i _ m u m m u n a _ m a f i _ m u n i _ r a s h i n _ j i n _ d a d i": 1641,
      "##r a s h i n _ j i n _ d a d i _ m u m m u n a _ m a i _ m u n i _ m a i _ b a n ƙ y a m a": 1642,
      "##r a s h i n _ j i n _ d a d i _ m u m m u n a _ m u m m u n a _ r a s h i n _ j i n _ d a d i _ m a i _ b a n ƙ y a m a": 1643,
      "##n a _ g a b a _ n a _ y a u _ d a _ k u l l u n _ k a m a r _ y a d d a _ y a _ k a m a t a _ n a _ y a u _ d a _ k u l l u n _ k a m a r _ y a d d a _ y a _ k a m a t a": 1644,
      "##m a i _ m u n i _ m a i _ b a n ƙ y a m a _ m a f i _ m u n i _ m a i _ m u n i": 1645,
      "##r a s h i n _ j i n _ d a d i _ a b i n _ t a k a i c i _ m a i _ b a n ƙ y a m a": 1646,
      "b a _ k o m a i _ n a _ y a u _ d a _ k u l l u n _ n a _ a l ' a d a": 1647,
      "b a _ k o m a i _ n a _ y a u _ d a _ k u l l u n _ b a _ k o m a i": 1648,
      "b a _ k o m a i _ n a _ y a u _ d a _ k u l l u n _ n a _ k o w a": 1649,
      "b a _ k o m a i _ n a _ y a u _ d a _ k u l l u n _ m a t s a k a i c i": 1650,
      "b a _ k o m a i _ n a _ y a u _ d a _ k u l l u n _ n a _ k o w a _ k a m a r _ y a d d a _ y a _ k a m a t": 1651,
      "b a _ k o m a i _ n a _ y a u _ d a _ k u l l u n _ m a t s a k a i c i _ n a _ k o w a _ m a t s a k a i c i _ ": 1652,
      "b a _ k o m a i _ n a _ y a u _ d a _ k u l l u n _ n a _ y a u _ d a _ k u l l u n _ n a _ k o w a _ n a _ k o w a _ ": 1653,
      "b a _ k o m a i _ n a _ y a u _ d a _ k u l l u n _ n a _ g a b a _ n a _ g a b a _ n a _ g a b a": 1654,
      "b a _ k o m a i _ n a _ y a u _ d a _ k u l l u n _ k a m a r _ y a d d a _ y a _ k a m a t a _ d a i d a i _ d a i d a i _ ": 1655,
      "m a t s a k a i c i _ n a _ y a u _ d a _ k u l l u n _ n a _ a l ' a d a": 1656,
      "m a t s a k a i c i _ n a _ y a u _ d a _ k u l l u n _ m a t s a k a i c i": 1657,
      "m a t s a k a i c i _ n a _ y a u _ d a _ k u l l u n _ n a _ k o w a _ m a t s a k a i c i _ m a t s a k a i c i": 1658,
      "m a t s a k a i c i _ n a _ y a u _ d a _ k u l l u n _ n a _ k o w a _ k a m a r _ y a d d a _ y a _ k a m a t a _ m a t s a k a i c i _ m a t s a k a i c i _ ": 1659,
      "m a t s a k a i c i _ n a _ y a u _ d a _ k u l l u n _ m a t s a k a i c i _ n a _ g a b a _ n a _ a l ' a d a _ ": 1660,
      "m a t s a k a i c i _ n a _ y a u _ d a _ k u l l u n _ n a _ y a u _ d a _ k u l l u n _ m a t s a k a i c i _ n a _ y a u _ d a _ k u l l u n _ ": 1661,
      "m a t s a k a i c i _ n a _ y a u _ d a _ k u l l u n _ k a m a r _ y a d d a _ y a _ k a m a t a _ m a t s a k a i c i _ b a _ k o m a i _ ": 1662,
      "##b a _ k y a u _ b a _ a b i n _ t a k a i c i _ m a i _ b a n ƙ y a m a _ a b i n _ t a k a i c i _ ": 1663,
      "##b a _ k y a u _ b a _ a b i n _ t a k a i c i _ r a s h i n _ j i n _ d a d i _ m u m m u n a": 1664,
      "##b a _ k y a u _ b a _ a b i n _ t a k a i c i _ b a _ k y a u _ b a _ m a i _ b a n ƙ y a m a": 1665,
      "##m u m m u n a _ a b i n _ t a k a i c i _ m a i _ b a n ƙ y a m a": 1666,
      "##m u m m u n a _ a b i n _ t a k a i c i _ b a _ k y a u _ b a _ a b i n _ t a k a i c i": 1667,
      "##m u m m u n a _ a b i n _ t a k a i c i _ b a _ k y a u _ b a _ m a f i _ m u n i": 1668,
      "##k y a k y a w a n _ k y a k k y a w a _ m a i _ d a d i": 1669,
      "##k y a k y a w a n _ k y a k k y a w a _ k y a k k y a w a _ k y a k k y a w a": 1670,
      "##k y a k y a w a n _ k y a k k y a w a _ i n a _ s o _ m a i _ d a d i _ k y a k k y a w a": 1671,
      "##m a t s a k a i c i _ b a _ k o m a i _ n a _ g a b a": 1672,
      "##m a t s a k a i c i _ b a _ k o m a i _ b a _ k o m a i _ d a i d a i": 1673,
      "##m a f i _ m u n i _ n a _ k y a m a _ m a i _ b a n ƙ y a m a _ r a s h i n _ j i n _ d a d i": 1674,
      "##m a f i _ m u n i _ n a _ k y a m a _ m a i _ b a n ƙ y a m a _ m a i _ b a n ƙ y a m a": 1675,
      "##m a f i _ m u n i _ n a _ k y a m a _ m a i _ m u n i _ m a i _ m u n i _ m u m m u n a": 1676,
      "##m a i _ m u n i _ m a i _ m u n i _ r a s h i n _ j i n _ d a d i": 1677,
      "##m a i _ m u n i _ m a i _ m u n i _ m a f i _ m u n i": 1678,
      "##k a m a r _ y a d d a _ y a _ k a m a t a _ b a _ k o m a i _ k a m a r _ y a d d a _ y a _ k a m a t a": 1679,
      "##k a m a r _ y a d d a _ y a _ k a m a t a _ b a _ k o m a i _ n a _ k o w a _ m a t s a k a i c i": 1680,
      "##m a i _ m u n i _ a b i n _ t a k a i c i _ m a f i _ m u n i": 1681,
      "##m a i _ m u n i _ a b i n _ t a k a i c i _ n a _ k y a m a _ m a i _ m u n i": 1682,
      "##n a g a r i _ m a i _ d a d i _ n a g a r i _ m a f i _ k y a u": 1683,
      "##r a s h i n _ j i n _ d a d i _ b a _ k y a u _ b a _ b a _ k y a u _ b a _ m a i _ m u n i": 1684,
      "##r a s h i n _ j i n _ d a d i _ b a _ k y a u _ b a _ n a _ k y a m a _ m a i _ m u n i _ a b i n _ t a k a i c i": 1685,
      "##n a _ k y a m a _ m u m m u n a _ n a _ k y a m a _ b a _ k y a u _ b a _ m a f i _ m u n i": 1686,
      "##n a _ g a b a _ n a _ a l ' a d a _ n a _ a l ' a d a": 1687,
      "##n a _ g a b a _ n a _ a l ' a d a _ d a i d a i _ d a i d a i _ n a _ k o w a": 1688,
      "##m a f i _ m u n i _ m u m m u n a _ n a _ k y a m a _ m a i _ m u n i": 1689,
      "##m a f i _ m u n i _ m u m m u n a _ n a _ k y a m a _ b a _ k y a u _ b a": 1690,
      "##m a f i _ m u n i _ m u m m u n a _ m a i _ m u n i _ m a f i _ m u n i _ n a _ k y a m a": 1691,
      "##m a f i _ m u n i _ m u m m u n a _ m a i _ m u n i _ a b i n _ t a k a i c i": 1692,
      "##m a f i _ m u n i _ m u m m u n a _ m u m m u n a _ b a _ k y a u _ b a _ m a i _ b a n ƙ y a m a": 1693,
      "n a g a r i _ m a i _ d a d i _ n a g a r i _ m a f i _ k y a u": 1694,
      "n a g a r i _ m a i _ d a d i _ m u b a m b a n t a _ m a i _ k y a u _ ": 1695,
      "n a g a r i _ m a i _ d a d i _ m a f i _ k y a u _ m a i _ k y a u": 1696,
      "n a g a r i _ m a i _ d a d i _ n a g a r i _ n a g a r i _ m a i _ k y a u _ ": 1697,
      "n a g a r i _ m a i _ d a d i _ k y a k k y a w a _ k y a k k y a w a _ m a i _ k y a u": 1698,
      "n a g a r i _ m a i _ d a d i _ m a i _ d a d i _ n a g a r i _ n a g a r i": 1699,
      "n a g a r i _ m a i _ d a d i _ i n a _ s o _ m a f i _ k y a u _ k y a k k y a w a _ m u b a m b a n t a": 1700,
      "##k a m a r _ y a d d a _ y a _ k a m a t a _ k a m a r _ y a d d a _ y a _ k a m a t a _ n a _ y a u _ d a _ k u l l u n": 1701,
      "##k a m a r _ y a d d a _ y a _ k a m a t a _ k a m a r _ y a d d a _ y a _ k a m a t a _ b a _ k o m a i _ n a _ g a b a": 1702,
      "k a m a r _ y a d d a _ y a _ k a m a t a _ b a _ k o m a i _ n a _ k o w a _ n a _ k o w a": 1703,
      "k a m a r _ y a d d a _ y a _ k a m a t a _ b a _ k o m a i _ n a _ k o w a _ d a i d a i _ d a i d a i _ ": 1704,
      "k a m a r _ y a d d a _ y a _ k a m a t a _ b a _ k o m a i _ n a _ g a b a _ b a _ k o m a i _ n a _ g a b a": 1705,
      "m u b a m b a n t a _ k y a k k y a w a _ i n a _ s o": 1706,
      "m u b a m b a n t a _ k y a k k y a w a _ m a i _ k y a u _ i n a _ s o _ ": 1707,
      "m u b a m b a n t a _ k y a k k y a w a _ k y a k y a w a n _ k y a k k y a w a _ m a f i _ k y a u": 1708,
      "m u b a m b a n t a _ k y a k k y a w a _ k y a k y a w a n _ k y a k y a w a n _ m a i _ d a d i _ ": 1709,
      "m u b a m b a n t a _ k y a k k y a w a _ k y a k k y a w a _ m a i _ d a d i _ m a i _ k y a u": 1710,
      "m u b a m b a n t a _ k y a k k y a w a _ i n a _ s o _ m a i _ k y a u _ m u b a m b a n t a _ ": 1711,
      "m u b a m b a n t a _ k y a k k y a w a _ k y a k y a w a n _ k y a k k y a w a _ m a i _ d a d i": 1712,
      "n a _ g a b a _ m a t s a k a i c i _ m a t s a k a i c i": 1713,
      "n a _ g a b a _ m a t s a k a i c i _ n a _ a l ' a d a _ n a _ a l ' a d a": 1714,
      "n a _ g a b a _ m a t s a k a i c i _ n a _ g a b a _ n a _ k o w a": 1715,
      "n a _ g a b a _ m a t s a k a i c i _ n a _ y a u _ d a _ k u l l u n _ m a t s a k a i c i _ m a t s a k a i c i": 1716,
      "n a _ g a b a _ m a t s a k a i c i _ n a _ k o w a _ m a t s a k a i c i _ d a i d a i _ n a _ g a b a": 1717,
      "##m a i _ b a n ƙ y a m a _ a b i n _ t a k a i c i _ m a i _ b a n ƙ y a m a": 1718,
      "##m a i _ b a n ƙ y a m a _ a b i n _ t a k a i c i _ n a _ k y a m a _ r a s h i n _ j i n _ d a d i _ m a i _ b a n ƙ y a m a": 1719,
      "##m a i _ k y a u _ i n a _ s o _ m u b a m b a n t a _ m a i _ k y a u _ ": 1720,
      "##b a _ k o m a i _ n a _ g a b a _ d a i d a i": 1721,
      "##b a _ k o m a i _ n a _ g a b a _ d a i d a i _ m a t s a k a i c i _ n a _ y a u _ d a _ k u l l u n": 1722,
      "##b a _ k o m a i _ n a _ g a b a _ k a m a r _ y a d d a _ y a _ k a m a t a _ n a _ g a b a _ n a _ a l ' a d a": 1723,
      "##m a f i _ k y a u _ m a f i _ k y a u _ k y a k k y a w a": 1724,
      "##b a _ k y a u _ b a _ m u m m u n a _ m a i _ b a n ƙ y a m a _ n a _ k y a m a": 1725,
      "##m a f i _ m u n i _ m a f i _ m u n i _ a b i n _ t a k a i c i": 1726,
      "##m a i _ m u n i _ m u m m u n a _ m a i _ m u n i": 1727,
      "##m a i _ m u n i _ m u m m u n a _ m u m m u n a": 1728,
      "##m a i _ m u n i _ m u m m u n a _ m a i _ m u n i _ m a i _ m u n i _ r a s h i n _ j i n _ d a d i": 1729,
      "##m a i _ m u n i _ m a i _ m u n i _ a b i n _ t a k a i c i": 1730,
      "##n a _ k o w a _ b a _ k o m a i _ n a _ k o w a _ b a _ k o m a i": 1731,
      "n a _ y a u _ d a _ k u l l u n _ k a m a r _ y a d d a _ y a _ k a m a t a _ d a i d a i": 1732,
      "n a _ y a u _ d a _ k u l l u n _ k a m a r _ y a d d a _ y a _ k a m a t a _ n a _ y a u _ d a _ k u l l u n": 1733,
      "n a _ y a u _ d a _ k u l l u n _ k a m a r _ y a d d a _ y a _ k a m a t a _ n a _ g a b a _ n a _ a l ' a d a": 1734,
      "n a _ y a u _ d a _ k u l l u n _ k a m a r _ y a d d a _ y a _ k a m a t a _ d a i d a i _ n a _ g a b a": 1735,
      "n a _ y a u _ d a _ k u l l u n _ k a m a r _ y a d d a _ y a _ k a m a t a _ n a _ g a b a _ b a _ k o m a i": 1736,
      "n a _ y a u _ d a _ k u l l u n _ k a m a r _ y a d d a _ y a _ k a m a t a _ n a _ g a b a _ n a _ k o w a _ n a _ g a b a": 1737,
      "m a i _ k y a u _ m a i _ d a d i _ k y a k y a w a n": 1738,
      "m a i _ k y a u _ m a i _ d a d i _ i n a _ s o": 1739,
      "m a i _ k y a u _ m a i _ d a d i _ i n a _ s o _ k y a k k y a w a": 1740,
      "m a i _ k y a u _ m a i _ d a d i _ k y a k k y a w a _ m u b a m b a n t a _ m a f i _ k y a u _ ": 1741,
      "m a i _ k y a u _ m a i _ d a d i _ n a g a r i _ m u b a m b a n t a _ m a i _ d a d i": 1742,
      "m a i _ k y a u _ m a i _ d a d i _ m u b a m b a n t a _ m a i _ d a d i _ i n a _ s o _ m a i _ d a d i": 1743,
      "m a i _ k y a u _ m a f i _ k y a u _ m a i _ d a d i": 1744,
      "m a i _ k y a u _ m a f i _ k y a u _ m a i _ k y a u _ m a i _ k y a u": 1745,
      "m a i _ k y a u _ m a f i _ k y a u _ n a g a r i _ i n a _ s o _ i n a _ s o _ ": 1746,
      "m a i _ k y a u _ m a f i _ k y a u _ m u b a m b a n t a _ m a i _ k y a u _ k y a k y a w a n _ ": 1747,
      "m a i _ k y a u _ m a f i _ k y a u _ n a g a r i _ m u b a m b a n t a _ m a i _ d a d i _ m a i _ k y a u": 1748,
      "m a i _ k y a u _ m a f i _ k y a u _ m u b a m b a n t a _ m a i _ d a d i _ m u b a m b a n t a _ m a f i _ k y a u _ m a f i _ k y a u": 1749,
      "d a i d a i _ b a _ k o m a i _ b a _ k o m a i": 1750,
      "d a i d a i _ b a _ k o m a i _ n a _ a l ' a d a _ n a _ a l ' a d a": 1751,
      "d a i d a i _ b a _ k o m a i _ b a _ k o m a i _ k a m a r _ y a d d a _ y a _ k a m a t a _ ": 1752,
      "d a i d a i _ b a _ k o m a i _ n a _ y a u _ d a _ k u l l u n _ b a _ k o m a i _ k a m a r _ y a d d a _ y a _ k a m a t a": 1753,
      "d a i d a i _ b a _ k o m a i _ n a _ g a b a _ b a _ k o m a i _ d a i d a i _ d a i d a i _ n a _ g a b a": 1754,
      "d a i d a i _ b a _ k o m a i _ b a _ k o m a i _ n a _ g a b a _ d a i d a i _ m a t s a k a i c i _ n a _ y a u _ d a _ k u l l u n": 1755,
      "b a _ k o m a i _ m a t s a k a i c i _ n a _ k o w a": 1756,
      "b a _ k o m a i _ m a t s a k a i c i _ m a t s a k a i c i": 1757,
      "b a _ k o m a i _ m a t s a k a i c i _ d a i d a i _ n a _ k o w a _ k a m a r _ y a d d a _ y a _ k a m a t a": 1758,
      "b a _ k o m a i _ m a t s a k a i c i _ k a m a r _ y a d d a _ y a _ k a m a t a _ n a _ k o w a": 1759,
      "b a _ k o m a i _ m a t s a k a i c i _ n a _ g a b a _ b a _ k o m a i _ d a i d a i": 1760,
      "b a _ k o m a i _ m a t s a k a i c i _ d a i d a i _ m a t s a k a i c i _ n a _ a l ' a d a _ m a t s a k a i c i": 1761,
      "m a i _ d a d i _ k y a k y a w a n _ i n a _ s o": 1762,
      "m a i _ d a d i _ k y a k y a w a n _ m u b a m b a n t a _ n a g a r i": 1763,
      "m a i _ d a d i _ k y a k y a w a n _ m a f i _ k y a u _ m u b a m b a n t a _ m u b a m b a n t a _ i n a _ s o _ ": 1764,
      "m a i _ d a d i _ k y a k y a w a n _ m u b a m b a n t a _ k y a k k y a w a _ k y a k k y a w a": 1765,
      "m a i _ d a d i _ k y a k y a w a n _ n a g a r i _ k y a k k y a w a _ m a i _ d a d i _ i n a _ s o": 1766,
      "m a i _ d a d i _ k y a k y a w a n _ m a f i _ k y a u _ m a i _ d a d i _ m a i _ d a d i _ k y a k k y a w a _ n a g a r i": 1767,
      "k a m a r _ y a d d a _ y a _ k a m a t a _ n a _ g a b a _ n a _ g a b a _ k a m a r _ y a d d a _ y a _ k a m a t a": 1768,
      "k a m a r _ y a d d a _ y a _ k a m a t a _ n a _ g a b a _ k a m a r _ y a d d a _ y a _ k a m a t a _ m a t s a k a i c i": 1769,
      "k a m a r _ y a d d a _ y a _ k a m a t a _ n a _ g a b a _ k a m a r _ y a d d a _ y a _ k a m a t a _ n a _ y a u _ d a _ k u l l u n _ n a _ k o w a": 1770,
      "k a m a r _ y a d d a _ y a _ k a m a t a _ n a _ g a b a _ m a t s a k a i c i _ n a _ g a b a _ n a _ k o w a _ n a _ y a u _ d a _ k u l l u n": 1771,
      "k a m a r _ y a d d a _ y a _ k a m a t a _ n a _ g a b a _ k a m a r _ y a d d a _ y a _ k a m a t a _ k a m a r _ y a d d a _ y a _ k a m a t": 1772,
      "k a m a r _ y a d d a _ y a _ k a m a t a _ n a _ g a b a _ n a _ g a b a _ n a _ k o w a _ n a _ a l ' a d a _ n a _ g a b a _ n a _ a l ' a d a": 1773,
      "a b i n _ t a k a i c i _ b a _ k y a u _ b a _ m a i _ b a n ƙ y a m a": 1774,
      "a b i n _ t a k a i c i _ b a _ k y a u _ b a _ m a i _ m u n i _ r a s h i n _ j i n _ d a d i": 1775,
      "a b i n _ t a k a i c i _ b a _ k y a u _ b a _ m a f i _ m u n i _ m a i _ m u n i": 1776,
      "a b i n _ t a k a i c i _ b a _ k y a u _ b a _ m a i _ m u n i _ b a _ k y a u _ b a _ m a i _ m u n i": 1777,
      "a b i n _ t a k a i c i _ b a _ k y a u _ b a _ m a i _ b a n ƙ y a m a _ m a f i _ m u n i _ a b i n _ t a k a i c i": 1778,
      "a b i n _ t a k a i c i _ b a _ k y a u _ b a _ m a f i _ m u n i _ n a _ k y a m a _ m a i _ b a n ƙ y a m a _ m a i _ b a n ƙ y a m a": 1779,
      "r a s h i n _ j i n _ d a d i _ m a f i _ m u n i _ m u m m u n a": 1780,
      "r a s h i n _ j i n _ d a d i _ m a f i _ m u n i _ m a f i _ m u n i _ m a i _ b a n ƙ y a m a": 1781,
      "r a s h i n _ j i n _ d a d i _ m a f i _ m u n i _ m a i _ m u n i _ b a _ k y a u _ b a _ m a i _ m u n i": 1782,
      "r a s h i n _ j i n _ d a d i _ m a f i _ m u n i _ r a s h i n _ j i n _ d a d i _ m a f i _ m u n i _ a b i n _ t a k a i c i _ ": 1783,
      "r a s h i n _ j i n _ d a d i _ m a f i _ m u n i _ m a f i _ m u n i _ a b i n _ t a k a i c i _ r a s h i n _ j i n _ d a d i _ m u m m u n a": 1784,
      "r a s h i n _ j i n _ d a d i _ m a f i _ m u n i _ b a _ k y a u _ b a _ a b i n _ t a k a i c i _ r a s h i n _ j i n _ d a d i _ m u m m u n a": 1785,
      "m a f i _ m u n i _ m a i _ b a n ƙ y a m a _ m a i _ b a n ƙ y a m a": 1786,
      "m a f i _ m u n i _ m a i _ b a n ƙ y a m a _ m u m m u n a": 1787,
      "m a f i _ m u n i _ m a i _ b a n ƙ y a m a _ m a i _ m u n i _ r a s h i n _ j i n _ d a d i": 1788,
      "m a f i _ m u n i _ m a i _ b a n ƙ y a m a _ m a i _ m u n i _ b a _ k y a u _ b a _ ": 1789,
      "m a f i _ m u n i _ m a i _ b a n ƙ y a m a _ r a s h i n _ j i n _ d a d i _ r a s h i n _ j i n _ d a d i _ m u m m u n a _ ": 1790,
      "m a f i _ m u n i _ m a i _ b a n ƙ y a m a _ m a f i _ m u n i _ m a i _ m u n i _ n a _ k y a m a _ ": 1791,
      "k y a k y a w a n _ m a i _ k y a u _ i n a _ s o": 1792,
      "k y a k y a w a n _ m a i _ k y a u _ k y a k k y a w a": 1793,
      "k y a k y a w a n _ m a i _ k y a u _ m u b a m b a n t a _ k y a k y a w a n": 1794,
      "k y a k y a w a n _ m a i _ k y a u _ i n a _ s o _ k y a k y a w a n _ m a i _ k y a u": 1795,
      "k y a k y a w a n _ m a i _ k y a u _ m a i _ d a d i _ m u b a m b a n t a _ k y a k k y a w a _ ": 1796,
      "k y a k y a w a n _ m a i _ k y a u _ m a i _ k y a u _ k y a k k y a w a _ m a i _ d a d i _ m a i _ k y a u _ n a g a r i": 1797,
      "n a _ k y a m a _ r a s h i n _ j i n _ d a d i _ r a s h i n _ j i n _ d a d i": 1798,
      "n a _ k y a m a _ r a s h i n _ j i n _ d a d i _ n a _ k y a m a": 1799,
      "n a _ k y a m a _ r a s h i n _ j i n _ d a d i _ m a i _ m u n i _ m a i _ m u n i": 1800,
      "n a _ k y a m a _ r a s h i n _ j i n _ d a d i _ n a _ k y a m a _ a b i n _ t a k a i c i _ m u m m u n a": 1801,
      "n a _ k y a m a _ r a s h i n _ j i n _ d a d i _ m a i _ b a n ƙ y a m a _ m a i _ b a n ƙ y a m a _ m u m m u n a": 1802,
      "n a _ k y a m a _ r a s h i n _ j i n _ d a d i _ b a _ k y a u _ b a _ a b i n _ t a k a i c i _ r a s h i n _ j i n _ d a d i _ m a i _ b a n ƙ y a m a": 1803,
      "n a _ k o w a _ b a _ k o m a i _ b a _ k o m a i": 1804,
      "n a _ k o w a _ b a _ k o m a i _ m a t s a k a i c i _ n a _ a l ' a d a": 1805,
      "n a _ k o w a _ b a _ k o m a i _ d a i d a i _ n a _ a l ' a d a _ ": 1806,
      "n a _ k o w a _ b a _ k o m a i _ n a _ k o w a _ n a _ a l ' a d a _ n a _ g a b a": 1807,
      "n a _ k o w a _ b a _ k o m a i _ b a _ k o m a i _ d a i d a i _ n a _ a l ' a d a _ ": 1808,
      "n a _ k o w a _ b a _ k o m a i _ n a _ k o w a _ n a _ g a b a _ n a _ a l ' a d a _ ": 1809,
      "m a i _ m u n i _ a b i n _ t a k a i c i _ m a i _ m u n i _ r a s h i n _ j i n _ d a d i": 1810,
      "m a i _ m u n i _ a b i n _ t a k a i c i _ m a f i _ m u n i _ m a i _ m u n i _ n a _ k y a m a _ ": 1811,
      "m a i _ m u n i _ a b i n _ t a k a i c i _ n a _ k y a m a _ m a i _ m u n i _ m a i _ b a n ƙ y a m a _ ": 1812,
      "m a i _ m u n i _ a b i n _ t a k a i c i _ m a i _ m u n i _ n a _ k y a m a _ m a i _ m u n i _ n a _ k y a m a": 1813,
      "m a i _ m u n i _ a b i n _ t a k a i c i _ m a i _ b a n ƙ y a m a _ a b i n _ t a k a i c i _ n a _ k y a m a _ r a s h i n _ j i n _ d a d i _ m a i _ b a n ƙ y a m a": 1814,
      "##m u b a m b a n t a _ m a i _ k y a u _ m a i _ d a d i": 1815,
      "##m u b a m b a n t a _ m a i _ k y a u _ n a g a r i _ k y a k k y a w a _ m a i _ k y a u": 1816,
      "##m u b a m b a n t a _ k y a k y a w a n _ k y a k y a w a n": 1817,
      "##m u b a m b a n t a _ k y a k y a w a n _ m u b a m b a n t a _ k y a k y a w a n": 1818,
      "##n a _ y a u _ d a _ k u l l u n _ n a _ a l ' a d a _ d a i d a i": 1819,
      "##n a _ y a u _ d a _ k u l l u n _ n a _ a l ' a d a _ n a _ g a b a": 1820,
      "##n a _ y a u _ d a _ k u l l u n _ n a _ a l ' a d a _ k a m a r _ y a d d a _ y a _ k a m a t a _ k a m a r _ y a d d a _ y a _ k a m a t a _ n a _ y a u _ d a _ k u l l u n": 1821,
      "##m a i _ m u n i _ b a _ k y a u _ b a _ r a s h i n _ j i n _ d a d i": 1822,
      "##m a i _ m u n i _ b a _ k y a u _ b a _ r a s h i n _ j i n _ d a d i _ m a i _ b a n ƙ y a m a": 1823,
      "##n a _ k o w a _ n a _ k o w a _ m a t s a k a i c i _ m a t s a k a i c i": 1824,
      "##m u m m u n a _ n a _ k y a m a _ n a _ k y a m a": 1825,
      "n a g a r i _ k y a k k y a w a _ m a f i _ k y a u": 1826,
      "n a g a r i _ k y a k k y a w a _ n a g a r i _ m a i _ k y a u": 1827,
      "n a g a r i _ k y a k k y a w a _ k y a k y a w a n _ m a i _ d a d i": 1828,
      "n a g a r i _ k y a k k y a w a _ m a i _ k y a u _ m a f i _ k y a u _ m a f i _ k y a u _ ": 1829,
      "n a g a r i _ k y a k k y a w a _ m a f i _ k y a u _ m a f i _ k y a u _ m a i _ d a d i _ ": 1830,
      "m a i _ b a n ƙ y a m a _ n a _ k y a m a _ m a f i _ m u n i": 1831,
      "m a i _ b a n ƙ y a m a _ n a _ k y a m a _ n a _ k y a m a": 1832,
      "m a i _ b a n ƙ y a m a _ n a _ k y a m a _ b a _ k y a u _ b a _ n a _ k y a m a": 1833,
      "m a i _ b a n ƙ y a m a _ n a _ k y a m a _ m a i _ m u n i _ m a i _ m u n i _ m a f i _ m u n i": 1834,
      "m a i _ b a n ƙ y a m a _ n a _ k y a m a _ m a i _ m u n i _ m u m m u n a _ m a i _ m u n i": 1835,
      "m a i _ b a n ƙ y a m a _ b a _ k y a u _ b a _ r a s h i n _ j i n _ d a d i": 1836,
      "m a i _ b a n ƙ y a m a _ b a _ k y a u _ b a _ b a _ k y a u _ b a": 1837,
      "m a i _ b a n ƙ y a m a _ b a _ k y a u _ b a _ m a i _ m u n i _ m a f i _ m u n i": 1838,
      "m a i _ b a n ƙ y a m a _ b a _ k y a u _ b a _ r a s h i n _ j i n _ d a d i _ m a f i _ m u n i": 1839,
      "m a i _ b a n ƙ y a m a _ b a _ k y a u _ b a _ r a s h i n _ j i n _ d a d i _ n a _ k y a m a _ m a f i _ m u n i _ b a _ k y a u _ b a _ b a _ k y a u _ b a": 1840,
      "d a i d a i _ n a _ a l ' a d a _ d a i d a i _ n a _ a l ' a d a": 1841,
      "d a i d a i _ n a _ a l ' a d a _ n a _ k o w a _ n a _ k o w a _ d a i d a i": 1842,
      "d a i d a i _ n a _ a l ' a d a _ n a _ k o w a _ n a _ k o w a": 1843,
      "d a i d a i _ n a _ a l ' a d a _ b a _ k o m a i _ b a _ k o m a i": 1844,
      "d a i d a i _ n a _ a l ' a d a _ n a _ a l ' a d a _ n a _ y a u _ d a _ k u l l u n _ d a i d a i _ b a _ k o m a i": 1845,
      "a b i n _ t a k a i c i _ a b i n _ t a k a i c i _ a b i n _ t a k a i c i _ ": 1846,
      "b a _ k o m a i _ k a m a r _ y a d d a _ y a _ k a m a t a _ n a _ g a b a _ n a _ g a b a": 1847,
      "b a _ k o m a i _ k a m a r _ y a d d a _ y a _ k a m a t a _ n a _ g a b a _ n a _ g a b a _ n a _ a l ' a d a": 1848,
      "b a _ k o m a i _ k a m a r _ y a d d a _ y a _ k a m a t a _ d a i d a i _ b a _ k o m a i _ k a m a r _ y a d d a _ y a _ k a m a t a": 1849,
      "b a _ k o m a i _ k a m a r _ y a d d a _ y a _ k a m a t a _ d a i d a i _ k a m a r _ y a d d a _ y a _ k a m a t a _ d a i d a i _ k a m a r _ y a d d a _ y a _ k a m a t a _ n a _ k o w a": 1850,
      "b a _ k o m a i _ k a m a r _ y a d d a _ y a _ k a m a t a _ m a t s a k a i c i _ b a _ k o m a i _ b a _ k o m a i _ d a i d a i": 1851,
      "m a i _ d a d i _ k y a k k y a w a _ m a i _ k y a u _ n a g a r i _ k y a k y a w a n _ ": 1852,
      "m a i _ d a d i _ k y a k k y a w a _ m u b a m b a n t a _ m a f i _ k y a u _ m a f i _ k y a u": 1853,
      "m a i _ d a d i _ k y a k k y a w a _ k y a k y a w a n _ n a g a r i _ m u b a m b a n t a": 1854,
      "m a i _ d a d i _ k y a k k y a w a _ m a i _ d a d i _ m a f i _ k y a u _ m a i _ d a d i _ ": 1855,
      "m a i _ d a d i _ k y a k k y a w a _ m a i _ k y a u _ k y a k k y a w a _ k y a k k y a w a _ n a g a r i _ m a i _ k y a u": 1856,
      "a b i n _ t a k a i c i _ m a f i _ m u n i _ m a i _ m u n i": 1857,
      "a b i n _ t a k a i c i _ m a f i _ m u n i _ n a _ k y a m a _ a b i n _ t a k a i c i _ m u m m u n a": 1858,
      "a b i n _ t a k a i c i _ m a f i _ m u n i _ m a i _ b a n ƙ y a m a _ b a _ k y a u _ b a": 1859,
      "a b i n _ t a k a i c i _ m a f i _ m u n i _ m a i _ m u n i _ r a s h i n _ j i n _ d a d i _ b a _ k y a u _ b a _ ": 1860,
      "a b i n _ t a k a i c i _ m a f i _ m u n i _ m a i _ m u n i _ m a i _ b a n ƙ y a m a _ m a f i _ m u n i _ m a i _ m u n i": 1861,
      "m a i _ m u n i _ r a s h i n _ j i n _ d a d i _ m a i _ m u n i _ m a i _ m u n i": 1862,
      "m a i _ m u n i _ r a s h i n _ j i n _ d a d i _ m a i _ b a n ƙ y a m a _ a b i n _ t a k a i c i": 1863,
      "m a i _ m u n i _ r a s h i n _ j i n _ d a d i _ b a _ k y a u _ b a _ a b i n _ t a k a i c i _ r a s h i n _ j i n _ d a d i _ m a i _ b a n ƙ y a m a": 1864,
      "m a i _ m u n i _ r a s h i n _ j i n _ d a d i _ m a i _ m u n i _ m a i _ m u n i _ m a i _ b a n ƙ y a m a": 1865,
      "m a i _ m u n i _ r a s h i n _ j i n _ d a d i _ m a f i _ m u n i _ r a s h i n _ j i n _ d a d i _ r a s h i n _ j i n _ d a d i _ ": 1866,
      "m a f i _ k y a u _ k y a k k y a w a _ i n a _ s o _ m a f i _ k y a u _ m a f i _ k y a u _ ": 1867,
      "m a f i _ k y a u _ k y a k k y a w a _ m a i _ k y a u _ k y a k k y a w a": 1868,
      "m a f i _ k y a u _ k y a k k y a w a _ m u b a m b a n t a _ n a g a r i _ m a i _ k y a u": 1869,
      "m a f i _ k y a u _ k y a k k y a w a _ m a i _ k y a u _ k y a k k y a w a _ m a i _ d a d i _ k y a k k y a w a _ k y a k k y a w a": 1870,
      "m a f i _ k y a u _ k y a k k y a w a _ n a g a r i _ k y a k k y a w a _ m a i _ d a d i _ m a i _ d a d i _ n a g a r i": 1871,
      "m a t s a k a i c i _ b a _ k o m a i _ n a _ a l ' a d a": 1872,
      "m a t s a k a i c i _ b a _ k o m a i _ k a m a r _ y a d d a _ y a _ k a m a t a": 1873,
      "m a t s a k a i c i _ b a _ k o m a i _ b a _ k o m a i _ k a m a r _ y a d d a _ y a _ k a m a t a _ ": 1874,
      "m a t s a k a i c i _ b a _ k o m a i _ n a _ y a u _ d a _ k u l l u n _ b a _ k o m a i _ d a i d a i _ n a _ y a u _ d a _ k u l l u n _ ": 1875,
      "m a t s a k a i c i _ b a _ k o m a i _ k a m a r _ y a d d a _ y a _ k a m a t a _ n a _ a l ' a d a _ m a t s a k a i c i _ n a _ a l ' a d a _ ": 1876,
      "k y a k y a w a n _ m a i _ d a d i _ n a g a r i": 1877,
      "k y a k y a w a n _ m a i _ d a d i _ m u b a m b a n t a _ m u b a m b a n t a": 1878,
      "k y a k y a w a n _ m a i _ d a d i _ m u b a m b a n t a _ m a f i _ k y a u _ m a i _ d a d i _ ": 1879,
      "k y a k y a w a n _ m a i _ d a d i _ i n a _ s o _ k y a k y a w a n _ m u b a m b a n t a": 1880,
      "k y a k y a w a n _ m a i _ d a d i _ m a f i _ k y a u _ k y a k y a w a n _ m a f i _ k y a u _ k y a k k y a w a _ ": 1881,
      "m u m m u n a _ a b i n _ t a k a i c i _ m u m m u n a _ b a _ k y a u _ b a _ ": 1882,
      "m u m m u n a _ a b i n _ t a k a i c i _ r a s h i n _ j i n _ d a d i _ m a i _ m u n i _ a b i n _ t a k a i c i _ ": 1883,
      "m u m m u n a _ a b i n _ t a k a i c i _ a b i n _ t a k a i c i": 1884,
      "##d a i d a i _ n a _ a l ' a d a _ n a _ g a b a": 1885,
      "##m a t s a k a i c i _ n a _ a l ' a d a _ k a m a r _ y a d d a _ y a _ k a m a t a": 1886,
      "##n a _ k o w a _ n a _ g a b a _ m a t s a k a i c i _ n a _ a l ' a d a": 1887,
      "##n a _ k o w a _ n a _ g a b a _ n a _ k o w a _ k a m a r _ y a d d a _ y a _ k a m a t a": 1888,
      "m a f i _ m u n i _ a b i n _ t a k a i c i _ m a i _ m u n i _ n a _ k y a m a": 1889,
      "m a f i _ m u n i _ a b i n _ t a k a i c i _ m a i _ m u n i _ m a i _ m u n i _ m a i _ b a n ƙ y a m a": 1890,
      "m a f i _ m u n i _ a b i n _ t a k a i c i _ n a _ k y a m a _ a b i n _ t a k a i c i _ r a s h i n _ j i n _ d a d i _ m a f i _ m u n i": 1891,
      "m a f i _ m u n i _ a b i n _ t a k a i c i _ r a s h i n _ j i n _ d a d i _ m u m m u n a _ m a f i _ m u n i _ r a s h i n _ j i n _ d a d i": 1892,
      "n a g a r i _ m a i _ k y a u _ m a f i _ k y a u _ n a g a r i _ m u b a m b a n t a _ ": 1893,
      "n a g a r i _ m a i _ k y a u _ n a g a r i _ m u b a m b a n t a _ k y a k y a w a n _ m a i _ d a d i": 1894,
      "n a g a r i _ m a i _ k y a u _ m a i _ d a d i _ m a i _ k y a u _ m u b a m b a n t a": 1895,
      "n a g a r i _ m a i _ k y a u _ m u b a m b a n t a _ k y a k y a w a n _ k y a k y a w a n": 1896,
      "##_ a b i n _ t a k a i c i _ a b i n _ t a k a i c i _ r a s h i n _ j i n _ d a d i _ m a i _ m u n i": 1897,
      "##_ a b i n _ t a k a i c i _ a b i n _ t a k a i c i _ m a i _ m u n i _ n a _ k y a m a _ m a i _ b a n ƙ y a m a": 1898,
      "n a _ y a u _ d a _ k u l l u n _ b a _ k o m a i _ n a _ a l ' a d a": 1899,
      "n a _ y a u _ d a _ k u l l u n _ b a _ k o m a i _ n a _ g a b a": 1900,
      "n a _ y a u _ d a _ k u l l u n _ b a _ k o m a i _ n a _ k o w a _ b a _ k o m a i": 1901,
      "n a _ y a u _ d a _ k u l l u n _ b a _ k o m a i _ m a t s a k a i c i _ d a i d a i _ n a _ g a b a _ d a i d a i": 1902,
      "n a _ y a u _ d a _ k u l l u n _ n a _ a l ' a d a _ k a m a r _ y a d d a _ y a _ k a m a t a": 1903,
      "n a _ y a u _ d a _ k u l l u n _ n a _ a l ' a d a _ k a m a r _ y a d d a _ y a _ k a m a t a _ n a _ y a u _ d a _ k u l l u n _ n a _ k o w a": 1904,
      "n a _ y a u _ d a _ k u l l u n _ n a _ a l ' a d a _ n a _ g a b a _ n a _ y a u _ d a _ k u l l u n _ k a m a r _ y a d d a _ y a _ k a m a t a _ n a _ y a u _ d a _ k u l l u n _ k a m a r _ y a d d a _ y a _ k a m a t a": 1905,
      "n a _ y a u _ d a _ k u l l u n _ n a _ a l ' a d a _ k a m a r _ y a d d a _ y a _ k a m a t a _ b a _ k o m a i _ n a _ k o w a _ m a t s a k a i c i": 1906,
      "m a i _ k y a u _ k y a k k y a w a _ m a i _ d a d i _ m u b a m b a n t a": 1907,
      "m a i _ k y a u _ k y a k k y a w a _ k y a k k y a w a _ m a i _ d a d i _ ": 1908,
      "m a i _ k y a u _ k y a k k y a w a _ i n a _ s o _ k y a k y a w a n _ n a g a r i": 1909,
      "m a i _ k y a u _ k y a k k y a w a _ m u b a m b a n t a _ m a i _ k y a u _ n a g a r i _ k y a k k y a w a _ m a i _ k y a u": 1910,
      "k y a k k y a w a _ k y a k k y a w a _ n a g a r i _ m a f i _ k y a u": 1911,
      "k y a k k y a w a _ k y a k k y a w a _ n a g a r i _ n a g a r i _ ": 1912,
      "k y a k k y a w a _ k y a k k y a w a _ i n a _ s o _ k y a k y a w a n _ i n a _ s o _ k y a k k y a w a _ ": 1913,
      "k y a k k y a w a _ k y a k k y a w a _ m u b a m b a n t a _ m a f i _ k y a u _ m a f i _ k y a u _ k y a k y a w a n _ m a i _ k y a u": 1914,
      "d a i d a i _ n a _ y a u _ d a _ k u l l u n _ m a t s a k a i c i": 1915,
      "d a i d a i _ n a _ y a u _ d a _ k u l l u n _ d a i d a i _ n a _ g a b a _ d a i d a i": 1916,
      "d a i d a i _ n a _ y a u _ d a _ k u l l u n _ m a t s a k a i c i _ d a i d a i _ n a _ k o w a _ ": 1917,
      "d a i d a i _ n a _ y a u _ d a _ k u l l u n _ k a m a r _ y a d d a _ y a _ k a m a t a _ n a _ g a b a _ m a t s a k a i c i _ n a _ y a u _ d a _ k u l l u n _ ": 1918,
      "d a i d a i _ k a m a r _ y a d d a _ y a _ k a m a t a _ n a _ g a b a": 1919,
      "d a i d a i _ k a m a r _ y a d d a _ y a _ k a m a t a _ n a _ y a u _ d a _ k u l l u n": 1920,
      "d a i d a i _ k a m a r _ y a d d a _ y a _ k a m a t a _ n a _ k o w a _ d a i d a i _ n a _ y a u _ d a _ k u l l u n _ n a _ g a b a": 1921,
      "d a i d a i _ k a m a r _ y a d d a _ y a _ k a m a t a _ n a _ k o w a _ b a _ k o m a i _ n a _ k o w a _ b a _ k o m a i": 1922,
      "a b i n _ t a k a i c i _ m u m m u n a _ r a s h i n _ j i n _ d a d i _ m a i _ m u n i": 1923,
      "a b i n _ t a k a i c i _ m u m m u n a _ m a f i _ m u n i _ b a _ k y a u _ b a _ m a f i _ m u n i": 1924,
      "a b i n _ t a k a i c i _ m u m m u n a _ m a i _ m u n i _ n a _ k y a m a _ r a s h i n _ j i n _ d a d i _ n a _ k y a m a _ b a _ k y a u _ b a": 1925,
      "a b i n _ t a k a i c i _ m u m m u n a _ m a f i _ m u n i _ a b i n _ t a k a i c i _ m a f i _ m u n i _ m a f i _ m u n i _ r a s h i n _ j i n _ d a d i": 1926,
      "n a _ a l ' a d a _ d a i d a i _ b a _ k o m a i _ n a _ y a u _ d a _ k u l l u n": 1927,
      "n a _ a l ' a d a _ d a i d a i _ b a _ k o m a i _ n a _ y a u _ d a _ k u l l u n _ k a m a r _ y a d d a _ y a _ k a m a t a": 1928,
      "n a _ a l ' a d a _ d a i d a i _ b a _ k o m a i _ n a _ a l ' a d a _ n a _ g a b a": 1929,
      "n a _ a l ' a d a _ d a i d a i _ b a _ k o m a i _ m a t s a k a i c i _ n a _ a l ' a d a _ m a t s a k a i c i": 1930,
      "m u b a m b a n t a _ m a f i _ k y a u _ i n a _ s o _ n a g a r i _ k y a k k y a w a _ ": 1931,
      "m u b a m b a n t a _ m a f i _ k y a u _ n a g a r i _ m u b a m b a n t a _ k y a k y a w a n _ m a i _ d a d i _ n a g a r i": 1932,
      "r a s h i n _ j i n _ d a d i _ b a _ k y a u _ b a _ r a s h i n _ j i n _ d a d i _ r a s h i n _ j i n _ d a d i _ m a i _ b a n ƙ y a m a": 1933,
      "r a s h i n _ j i n _ d a d i _ b a _ k y a u _ b a _ n a _ k y a m a _ r a s h i n _ j i n _ d a d i _ a b i n _ t a k a i c i _ ": 1934,
      "r a s h i n _ j i n _ d a d i _ b a _ k y a u _ b a _ m u m m u n a _ a b i n _ t a k a i c i _ b a _ k y a u _ b a _ a b i n _ t a k a i c i": 1935,
      "r a s h i n _ j i n _ d a d i _ b a _ k y a u _ b a _ m a f i _ m u n i _ n a _ k y a m a _ m a i _ b a n ƙ y a m a _ r a s h i n _ j i n _ d a d i": 1936,
      "m a i _ m u n i _ m a i _ b a n ƙ y a m a _ b a _ k y a u _ b a _ a b i n _ t a k a i c i": 1937,
      "m a i _ m u n i _ m a i _ b a n ƙ y a m a _ m u m m u n a _ n a _ k y a m a": 1938,
      "m a i _ m u n i _ m a i _ b a n ƙ y a m a _ m u m m u n a _ b a _ k y a u _ b a": 1939,
      "m a i _ m u n i _ m a i _ b a n ƙ y a m a _ m a i _ m u n i _ m a i _ m u n i _ m u m m u n a": 1940,
      "n a _ k y a m a _ a b i n _ t a k a i c i _ n a _ k y a m a _ m a i _ m u n i": 1941,
      "n a _ k y a m a _ a b i n _ t a k a i c i _ n a _ k y a m a _ m a i _ m u n i _ n a _ k y a m a _ ": 1942,
      "m a f i _ k y a u _ n a g a r i _ i n a _ s o": 1943,
      "m a f i _ k y a u _ n a g a r i _ m a f i _ k y a u _ k y a k y a w a n": 1944,
      "m a f i _ k y a u _ n a g a r i _ n a g a r i _ k y a k y a w a n": 1945,
      "m a f i _ k y a u _ n a g a r i _ m a i _ k y a u _ k y a k k y a w a _ k y a k k y a w a _ k y a k k y a w a": 1946,
      "m a f i _ m u n i _ n a _ k y a m a _ r a s h i n _ j i n _ d a d i": 1947,
      "m a f i _ m u n i _ n a _ k y a m a _ n a _ k y a m a _ b a _ k y a u _ b a": 1948,
      "m a f i _ m u n i _ n a _ k y a m a _ b a _ k y a u _ b a _ m a i _ b a n ƙ y a m a _ ": 1949,
      "m a f i _ m u n i _ n a _ k y a m a _ b a _ k y a u _ b a _ r a s h i n _ j i n _ d a d i _ n a _ k y a m a _ b a _ k y a u _ b a": 1950,
      "m a f i _ m u n i _ b a _ k y a u _ b a _ n a _ k y a m a _ m a i _ m u n i _ ": 1951,
      "m a f i _ m u n i _ b a _ k y a u _ b a _ m a i _ b a n ƙ y a m a _ n a _ k y a m a _ m a i _ m u n i _ a b i n _ t a k a i c i": 1952,
      "m a f i _ m u n i _ b a _ k y a u _ b a _ n a _ k y a m a _ m u m m u n a _ n a _ k y a m a _ b a _ k y a u _ b a _ m a f i _ m u n i": 1953,
      "m a f i _ m u n i _ b a _ k y a u _ b a _ m a f i _ m u n i _ m u m m u n a _ m u m m u n a _ b a _ k y a u _ b a _ m a i _ b a n ƙ y a m a": 1954,
      "k y a k y a w a n _ k y a k k y a w a _ m a i _ k y a u _ k y a k y a w a n": 1955,
      "k y a k y a w a n _ k y a k k y a w a _ m a i _ k y a u _ k y a k k y a w a _ n a g a r i": 1956,
      "k y a k y a w a n _ k y a k k y a w a _ m u b a m b a n t a _ k y a k k y a w a _ n a g a r i": 1957,
      "k y a k y a w a n _ k y a k k y a w a _ i n a _ s o _ i n a _ s o _ m a f i _ k y a u": 1958,
      "b a _ k y a u _ b a _ n a _ k y a m a _ m a f i _ m u n i _ m a f i _ m u n i": 1959,
      "b a _ k y a u _ b a _ n a _ k y a m a _ m a i _ b a n ƙ y a m a _ n a _ k y a m a": 1960,
      "b a _ k y a u _ b a _ n a _ k y a m a _ n a _ k y a m a _ n a _ k y a m a _ a b i n _ t a k a i c i _ n a _ k y a m a": 1961,
      "b a _ k y a u _ b a _ n a _ k y a m a _ m a f i _ m u n i _ n a _ k y a m a _ m a i _ m u n i _ m a i _ m u n i _ m u m m u n a": 1962,
      "i n a _ s o _ n a g a r i _ i n a _ s o": 1963,
      "i n a _ s o _ n a g a r i _ m a f i _ k y a u _ k y a k k y a w a": 1964,
      "i n a _ s o _ n a g a r i _ m a f i _ k y a u _ m a i _ k y a u _ i n a _ s o _ ": 1965,
      "i n a _ s o _ n a g a r i _ m a f i _ k y a u _ k y a k y a w a n _ n a g a r i _ m a i _ d a d i _ ": 1966,
      "i n a _ s o _ m a i _ d a d i _ k y a k y a w a n _ k y a k y a w a n _ m a i _ d a d i": 1967,
      "i n a _ s o _ m a i _ d a d i _ n a g a r i _ i n a _ s o": 1968,
      "i n a _ s o _ m a i _ d a d i _ i n a _ s o _ m a f i _ k y a u _ i n a _ s o _ n a g a r i _ m u b a m b a n t a": 1969,
      "i n a _ s o _ m a i _ d a d i _ m u b a m b a n t a _ m a f i _ k y a u _ i n a _ s o": 1970,
      "m u m m u n a _ m a f i _ m u n i _ m a i _ b a n ƙ y a m a _ n a _ k y a m a": 1971,
      "m u m m u n a _ m a f i _ m u n i _ m a i _ m u n i _ n a _ k y a m a _ m a f i _ m u n i _ n a _ k y a m a": 1972,
      "m u m m u n a _ m a f i _ m u n i _ b a _ k y a u _ b a _ a b i n _ t a k a i c i _ m a i _ b a n ƙ y a m a _ a b i n _ t a k a i c i _ ": 1973,
      "m u m m u n a _ m a f i _ m u n i _ m a f i _ m u n i _ m u m m u n a _ n a _ k y a m a _ m a i _ m u n i": 1974,
      "a b i n _ t a k a i c i _ a b i n _ t a k a i c i _ r a s h i n _ j i n _ d a d i": 1975,
      "a b i n _ t a k a i c i _ a b i n _ t a k a i c i _ m a i _ b a n ƙ y a m a": 1976,
      "a b i n _ t a k a i c i _ a b i n _ t a k a i c i _ b a _ k y a u _ b a _ n a _ k y a m a _ a b i n _ t a k a i c i _ n a _ k y a m a": 1977,
      "a b i n _ t a k a i c i _ a b i n _ t a k a i c i _ m u m m u n a _ b a _ k y a u _ b a _ b a _ k y a u _ b a _ n a _ k y a m a _ m a i _ m u n i": 1978,
      "##k y a k y a w a n _ n a g a r i _ i n a _ s o _ m u b a m b a n t a": 1979,
      "##n a _ y a u _ d a _ k u l l u n _ n a _ y a u _ d a _ k u l l u n _ n a _ g a b a": 1980,
      "n a g a r i _ n a g a r i _ n a g a r i _ m a i _ d a d i _ m a i _ d a d i": 1981,
      "n a g a r i _ n a g a r i _ i n a _ s o _ m a f i _ k y a u _ n a g a r i _ m a i _ d a d i": 1982,
      "n a g a r i _ n a g a r i _ m a i _ k y a u _ m a i _ k y a u _ n a g a r i _ k y a k k y a w a": 1983,
      "n a g a r i _ m a i _ d a d i _ m a i _ k y a u _ m a i _ d a d i _ k y a k y a w a n": 1984,
      "n a g a r i _ m a i _ d a d i _ m a i _ k y a u _ k y a k y a w a n _ m a f i _ k y a u": 1985,
      "n a g a r i _ m a i _ d a d i _ m a i _ k y a u _ m u b a m b a n t a _ m a f i _ k y a u _ m a i _ d a d i": 1986,
      "n a _ y a u _ d a _ k u l l u n _ n a _ y a u _ d a _ k u l l u n _ n a _ g a b a _ n a _ y a u _ d a _ k u l l u n": 1987,
      "n a _ y a u _ d a _ k u l l u n _ n a _ y a u _ d a _ k u l l u n _ m a t s a k a i c i _ m a t s a k a i c i _ n a _ y a u _ d a _ k u l l u n _ b a _ k o m a i _ n a _ y a u _ d a _ k u l l u n": 1988,
      "n a _ y a u _ d a _ k u l l u n _ n a _ y a u _ d a _ k u l l u n _ n a _ k o w a _ k a m a r _ y a d d a _ y a _ k a m a t a _ n a _ g a b a _ n a _ g a b a": 1989,
      "m a i _ b a n ƙ y a m a _ m a f i _ m u n i _ r a s h i n _ j i n _ d a d i _ r a s h i n _ j i n _ d a d i _ m a f i _ m u n i _ r a s h i n _ j i n _ d a d i": 1990,
      "m a i _ b a n ƙ y a m a _ m a f i _ m u n i _ m a i _ b a n ƙ y a m a _ m a i _ b a n ƙ y a m a _ m a i _ b a n ƙ y a m a _ m a i _ b a n ƙ y a m a _ m a i _ b a n ƙ y a m a": 1991,
      "m a i _ b a n ƙ y a m a _ m a f i _ m u n i _ r a s h i n _ j i n _ d a d i _ b a _ k y a u _ b a _ n a _ k y a m a _ m a i _ m u n i _ a b i n _ t a k a i c i": 1992,
      "m a i _ b a n ƙ y a m a _ m u m m u n a _ r a s h i n _ j i n _ d a d i _ m a f i _ m u n i _ b a _ k y a u _ b a _ ": 1993,
      "m a i _ b a n ƙ y a m a _ m u m m u n a _ m a f i _ m u n i _ m a i _ b a n ƙ y a m a _ n a _ k y a m a _ ": 1994,
      "m a i _ b a n ƙ y a m a _ m u m m u n a _ m u m m u n a _ b a _ k y a u _ b a _ m a i _ m u n i _ n a _ k y a m a": 1995,
      "m a i _ b a n ƙ y a m a _ m a i _ b a n ƙ y a m a _ m a i _ m u n i": 1996,
      "m a i _ b a n ƙ y a m a _ m a i _ b a n ƙ y a m a _ m a f i _ m u n i _ m u m m u n a _ m a i _ m u n i _ a b i n _ t a k a i c i": 1997,
      "m a i _ b a n ƙ y a m a _ m a i _ b a n ƙ y a m a _ m a i _ m u n i _ m u m m u n a _ m u m m u n a": 1998,
      "m a i _ k y a u _ k y a k y a w a n _ m a i _ d a d i _ n a g a r i": 1999,
      "k y a k k y a w a _ m u b a m b a n t a _ m u b a m b a n t a _ k y a k y a w a n": 2000,
      "k y a k k y a w a _ m u b a m b a n t a _ m a i _ k y a u _ k y a k y a w a n _ k y a k k y a w a _ m a i _ k y a u _ n a g a r i": 2001,
      "k y a k k y a w a _ m u b a m b a n t a _ k y a k y a w a n _ k y a k k y a w a _ i n a _ s o _ m a i _ d a d i _ k y a k k y a w a": 2002,
      "k y a k k y a w a _ m u b a m b a n t a _ k y a k k y a w a _ k y a k k y a w a": 2003,
      "k y a k k y a w a _ m u b a m b a n t a _ k y a k k y a w a _ k y a k y a w a n _ m a i _ d a d i _ m a i _ k y a u _ ": 2004,
      "k y a k k y a w a _ m u b a m b a n t a _ k y a k k y a w a _ m a i _ d a d i _ m a i _ k y a u _ i n a _ s o _ k y a k y a w a n": 2005,
      "k y a k k y a w a _ m a i _ d a d i _ m a i _ k y a u _ n a g a r i": 2006,
      "k y a k k y a w a _ m a i _ d a d i _ m a i _ k y a u _ m u b a m b a n t a _ m u b a m b a n t a": 2007,
      "k y a k k y a w a _ m a i _ d a d i _ m a i _ k y a u _ m a f i _ k y a u _ m a i _ k y a u": 2008,
      "m a i _ d a d i _ m a i _ k y a u _ n a g a r i _ m a i _ k y a u": 2009,
      "m a i _ d a d i _ m a i _ k y a u _ n a g a r i _ m a i _ k y a u _ k y a k k y a w a": 2010,
      "m a i _ d a d i _ m a i _ k y a u _ m u b a m b a n t a _ k y a k k y a w a _ m u b a m b a n t a _ k y a k k y a w a _ k y a k y a w a n": 2011,
      "k a m a r _ y a d d a _ y a _ k a m a t a _ n a _ k o w a _ n a _ g a b a _ n a _ a l ' a d a": 2012,
      "k a m a r _ y a d d a _ y a _ k a m a t a _ n a _ k o w a _ d a i d a i _ n a _ g a b a _ d a i d a i": 2013,
      "k a m a r _ y a d d a _ y a _ k a m a t a _ n a _ k o w a _ n a _ y a u _ d a _ k u l l u n _ n a _ a l ' a d a _ k a m a r _ y a d d a _ y a _ k a m a t a _ k a m a r _ y a d d a _ y a _ k a m a t a _ n a _ y a u _ d a _ k u l l u n": 2014,
      "k a m a r _ y a d d a _ y a _ k a m a t a _ d a i d a i _ n a _ g a b a _ n a _ g a b a": 2015,
      "k a m a r _ y a d d a _ y a _ k a m a t a _ d a i d a i _ n a _ g a b a _ n a _ k o w a": 2016,
      "k a m a r _ y a d d a _ y a _ k a m a t a _ d a i d a i _ n a _ g a b a _ n a _ g a b a _ n a _ a l ' a d a": 2017,
      "k a m a r _ y a d d a _ y a _ k a m a t a _ m a t s a k a i c i _ m a t s a k a i c i _ b a _ k o m a i _ n a _ g a b a": 2018,
      "k a m a r _ y a d d a _ y a _ k a m a t a _ m a t s a k a i c i _ m a t s a k a i c i _ n a _ k o w a _ m a t s a k a i c i _ m a t s a k a i c i _ n a _ g a b a": 2019,
      "k a m a r _ y a d d a _ y a _ k a m a t a _ m a t s a k a i c i _ m a t s a k a i c i _ k a m a r _ y a d d a _ y a _ k a m a t a _ n a _ a l ' a d a _ n a _ a l ' a d a _ n a _ k o w a": 2020,
      "a b i n _ t a k a i c i _ m a i _ m u n i _ b a _ k y a u _ b a _ a b i n _ t a k a i c i": 2021,
      "n a _ a l ' a d a _ b a _ k o m a i _ n a _ a l ' a d a": 2022,
      "n a _ a l ' a d a _ b a _ k o m a i _ m a t s a k a i c i _ n a _ a l ' a d a": 2023,
      "n a _ a l ' a d a _ b a _ k o m a i _ k a m a r _ y a d d a _ y a _ k a m a t a _ b a _ k o m a i _ k a m a r _ y a d d a _ y a _ k a m a t a": 2024,
      "m u b a m b a n t a _ m u b a m b a n t a _ k y a k y a w a n _ k y a k k y a w a _ m a f i _ k y a u": 2025,
      "m u b a m b a n t a _ m u b a m b a n t a _ m a i _ k y a u _ k y a k k y a w a _ i n a _ s o": 2026,
      "m u b a m b a n t a _ m u b a m b a n t a _ k y a k y a w a n _ m a i _ d a d i _ i n a _ s o _ m u b a m b a n t a": 2027,
      "m a i _ m u n i _ m a f i _ m u n i _ m a i _ m u n i _ m a f i _ m u n i _ b a _ k y a u _ b a _ ": 2028,
      "m a i _ m u n i _ m a f i _ m u n i _ m a f i _ m u n i _ a b i n _ t a k a i c i _ n a _ k y a m a _ m u m m u n a _ ": 2029,
      "m a i _ m u n i _ m a f i _ m u n i _ m a i _ m u n i _ a b i n _ t a k a i c i _ n a _ k y a m a _ m a i _ m u n i": 2030,
      "m a f i _ k y a u _ k y a k y a w a n _ i n a _ s o _ m a i _ k y a u": 2031,
      "m a f i _ k y a u _ k y a k y a w a n _ m u b a m b a n t a _ k y a k k y a w a _ m u b a m b a n t a _ n a g a r i": 2032,
      "m a f i _ k y a u _ k y a k y a w a n _ i n a _ s o _ k y a k k y a w a _ m u b a m b a n t a _ k y a k y a w a n": 2033,
      "m a f i _ k y a u _ m u b a m b a n t a _ n a g a r i _ i n a _ s o _ i n a _ s o _ ": 2034,
      "m a f i _ k y a u _ m u b a m b a n t a _ n a g a r i _ m a f i _ k y a u _ k y a k k y a w a _ ": 2035,
      "m a f i _ k y a u _ m u b a m b a n t a _ m a i _ k y a u _ k y a k k y a w a _ m u b a m b a n t a": 2036,
      "m a t s a k a i c i _ n a _ a l ' a d a _ d a i d a i _ n a _ k o w a": 2037,
      "m a t s a k a i c i _ n a _ a l ' a d a _ k a m a r _ y a d d a _ y a _ k a m a t a _ n a _ g a b a _ n a _ g a b a _ n a _ y a u _ d a _ k u l l u n _ ": 2038,
      "m a t s a k a i c i _ n a _ a l ' a d a _ n a _ y a u _ d a _ k u l l u n _ d a i d a i _ k a m a r _ y a d d a _ y a _ k a m a t a": 2039,
      "n a _ g a b a _ k a m a r _ y a d d a _ y a _ k a m a t a _ n a _ y a u _ d a _ k u l l u n _ d a i d a i _ b a _ k o m a i": 2040,
      "n a _ g a b a _ k a m a r _ y a d d a _ y a _ k a m a t a _ n a _ k o w a _ m a t s a k a i c i _ d a i d a i": 2041,
      "n a _ g a b a _ k a m a r _ y a d d a _ y a _ k a m a t a _ d a i d a i _ k a m a r _ y a d d a _ y a _ k a m a t a _ n a _ k o w a _ k a m a r _ y a d d a _ y a _ k a m a t a": 2042,
      "n a _ k o w a _ k a m a r _ y a d d a _ y a _ k a m a t a _ b a _ k o m a i _ n a _ y a u _ d a _ k u l l u n _ ": 2043,
      "n a _ k o w a _ k a m a r _ y a d d a _ y a _ k a m a t a _ n a _ g a b a _ m a t s a k a i c i _ m a t s a k a i c i _ ": 2044,
      "n a _ k o w a _ k a m a r _ y a d d a _ y a _ k a m a t a _ b a _ k o m a i _ n a _ g a b a _ k a m a r _ y a d d a _ y a _ k a m a t a _ n a _ g a b a _ n a _ a l ' a d a": 2045,
      "b a _ k y a u _ b a _ a b i n _ t a k a i c i _ m u m m u n a _ b a _ k y a u _ b a _ ": 2046,
      "b a _ k y a u _ b a _ a b i n _ t a k a i c i _ m a i _ b a n ƙ y a m a _ m a f i _ m u n i _ ": 2047,
      "b a _ k y a u _ b a _ a b i n _ t a k a i c i _ a b i n _ t a k a i c i _ m a i _ m u n i _ n a _ k y a m a _ m a i _ b a n ƙ y a m a": 2048,
      "n a _ k y a m a _ n a _ k y a m a _ m a i _ b a n ƙ y a m a": 2049,
      "n a _ k y a m a _ n a _ k y a m a _ m a f i _ m u n i": 2050,
      "n a _ k y a m a _ n a _ k y a m a _ n a _ k y a m a": 2051,
      "n a _ k y a m a _ m a i _ m u n i _ r a s h i n _ j i n _ d a d i _ m a i _ m u n i _ m a f i _ m u n i": 2052,
      "n a _ k y a m a _ m a i _ m u n i _ m u m m u n a _ b a _ k y a u _ b a _ r a s h i n _ j i n _ d a d i _ m a i _ b a n ƙ y a m a _ r a s h i n _ j i n _ d a d i": 2053,
      "n a _ k y a m a _ m a i _ m u n i _ r a s h i n _ j i n _ d a d i _ m u m m u n a _ m u m m u n a _ r a s h i n _ j i n _ d a d i _ m a i _ b a n ƙ y a m a": 2054,
      "n a _ k y a m a _ m u m m u n a _ m a i _ b a n ƙ y a m a": 2055,
      "n a _ k y a m a _ m u m m u n a _ r a s h i n _ j i n _ d a d i _ m a f i _ m u n i _ ": 2056,
      "n a _ k y a m a _ m u m m u n a _ m u m m u n a _ a b i n _ t a k a i c i _ m a i _ b a n ƙ y a m a": 2057,
      "n a _ k o w a _ n a _ a l ' a d a _ d a i d a i _ b a _ k o m a i _ k a m a r _ y a d d a _ y a _ k a m a t a _ k a m a r _ y a d d a _ y a _ k a m a t a": 2058,
      "n a _ k o w a _ n a _ a l ' a d a _ n a _ g a b a _ n a _ a l ' a d a _ d a i d a i _ d a i d a i _ n a _ k o w a": 2059,
      "n a _ k o w a _ n a _ a l ' a d a _ d a i d a i _ n a _ a l ' a d a _ n a _ g a b a": 2060,
      "b a _ k y a u _ b a _ m u m m u n a _ m a i _ m u n i": 2061,
      "b a _ k y a u _ b a _ m u m m u n a _ m a f i _ m u n i _ m a f i _ m u n i _ ": 2062,
      "b a _ k y a u _ b a _ m u m m u n a _ m a f i _ m u n i _ b a _ k y a u _ b a _ n a _ k y a m a _ m a f i _ m u n i _ m a f i _ m u n i": 2063,
      "m u m m u n a _ r a s h i n _ j i n _ d a d i _ m a i _ m u n i _ m a f i _ m u n i": 2064,
      "m u m m u n a _ r a s h i n _ j i n _ d a d i _ n a _ k y a m a _ a b i n _ t a k a i c i _ m u m m u n a _ n a _ k y a m a": 2065,
      "m u m m u n a _ r a s h i n _ j i n _ d a d i _ m a f i _ m u n i _ a b i n _ t a k a i c i _ m a f i _ m u n i _ a b i n _ t a k a i c i": 2066,
      "##r a s h i n _ j i n _ d a d i _ r a s h i n _ j i n _ d a d i _ m u m m u n a _ r a s h i n _ j i n _ d a d i _ m a f i _ m u n i": 2067,
      "##m a i _ k y a u _ m a f i _ k y a u _ m a i _ d a d i _ m a f i _ k y a u": 2068,
      "##i n a _ s o _ n a g a r i _ n a g a r i _ m a i _ d a d i": 2069,
      "##m a f i _ m u n i _ m a i _ b a n ƙ y a m a _ m a f i _ m u n i _ m a i _ b a n ƙ y a m a": 2070,
      "##n a _ k o w a _ n a _ y a u _ d a _ k u l l u n _ n a _ a l ' a d a _ m a t s a k a i c i": 2071,
      "##n a _ k o w a _ n a _ y a u _ d a _ k u l l u n _ k a m a r _ y a d d a _ y a _ k a m a t a _ d a i d a i": 2072,
      "##n a _ k o w a _ d a i d a i _ d a i d a i _ n a _ g a b a": 2073,
      "n a g a r i _ i n a _ s o _ k y a k y a w a n _ m a i _ d a d i _ m a i _ k y a u": 2074,
      "n a g a r i _ i n a _ s o _ k y a k y a w a n _ m u b a m b a n t a _ k y a k k y a w a _ n a g a r i": 2075,
      "n a g a r i _ i n a _ s o _ k y a k k y a w a _ m u b a m b a n t a": 2076,
      "n a g a r i _ i n a _ s o _ k y a k k y a w a _ m u b a m b a n t a _ m a f i _ k y a u _ m a i _ k y a u _ n a g a r i": 2077,
      "n a g a r i _ m a i _ k y a u _ m a i _ k y a u _ m u b a m b a n t a _ k y a k y a w a n": 2078,
      "n a g a r i _ m a i _ k y a u _ m a i _ k y a u _ m a f i _ k y a u _ m u b a m b a n t a _ m a f i _ k y a u": 2079,
      "n a g a r i _ n a g a r i _ k y a k y a w a n _ k y a k y a w a n": 2080,
      "n a g a r i _ n a g a r i _ k y a k y a w a n _ n a g a r i": 2081,
      "n a g a r i _ m a i _ k y a u _ i n a _ s o _ m a i _ k y a u": 2082,
      "n a g a r i _ m a i _ k y a u _ i n a _ s o _ m a i _ k y a u _ k y a k y a w a n": 2083,
      "m a i _ b a n ƙ y a m a _ a b i n _ t a k a i c i _ b a _ k y a u _ b a": 2084,
      "m a i _ b a n ƙ y a m a _ a b i n _ t a k a i c i _ r a s h i n _ j i n _ d a d i _ m a f i _ m u n i _ m a i _ m u n i": 2085,
      "m a i _ b a n ƙ y a m a _ r a s h i n _ j i n _ d a d i _ a b i n _ t a k a i c i _ a b i n _ t a k a i c i": 2086,
      "m a i _ b a n ƙ y a m a _ r a s h i n _ j i n _ d a d i _ a b i n _ t a k a i c i _ a b i n _ t a k a i c i _ m u m m u n a": 2087,
      "m a i _ k y a u _ i n a _ s o _ i n a _ s o _ m a i _ k y a u _ k y a k y a w a n _ k y a k k y a w a": 2088,
      "m a i _ k y a u _ i n a _ s o _ i n a _ s o _ i n a _ s o _ n a g a r i _ n a g a r i _ m a i _ d a d i": 2089,
      "m a i _ k y a u _ m u b a m b a n t a _ i n a _ s o _ m a i _ k y a u": 2090,
      "m a i _ k y a u _ m u b a m b a n t a _ i n a _ s o _ m u b a m b a n t a": 2091,
      "k y a k k y a w a _ n a g a r i _ m u b a m b a n t a _ m u b a m b a n t a": 2092,
      "k y a k k y a w a _ n a g a r i _ m u b a m b a n t a _ m a i _ k y a u _ m a i _ d a d i _ ": 2093,
      "k y a k k y a w a _ m u b a m b a n t a _ m a i _ d a d i _ i n a _ s o _ i n a _ s o": 2094,
      "k y a k k y a w a _ m u b a m b a n t a _ m a i _ d a d i _ n a g a r i _ i n a _ s o _ m u b a m b a n t a": 2095,
      "d a i d a i _ n a _ g a b a _ b a _ k o m a i _ b a _ k o m a i": 2096,
      "d a i d a i _ n a _ g a b a _ b a _ k o m a i _ n a _ g a b a _ n a _ a l ' a d a": 2097,
      "d a i d a i _ n a _ g a b a _ n a _ k o w a _ n a _ k o w a _ n a _ k o w a _ d a i d a i": 2098,
      "d a i d a i _ n a _ g a b a _ n a _ k o w a _ b a _ k o m a i _ n a _ a l ' a d a _ b a _ k o m a i _ k a m a r _ y a d d a _ y a _ k a m a t a": 2099,
      "b a _ k o m a i _ n a _ a l ' a d a _ n a _ y a u _ d a _ k u l l u n": 2100,
      "b a _ k o m a i _ n a _ a l ' a d a _ n a _ y a u _ d a _ k u l l u n _ k a m a r _ y a d d a _ y a _ k a m a t a": 2101,
      "b a _ k o m a i _ n a _ g a b a _ b a _ k o m a i _ b a _ k o m a i": 2102,
      "b a _ k o m a i _ n a _ g a b a _ b a _ k o m a i _ k a m a r _ y a d d a _ y a _ k a m a t a _ n a _ a l ' a d a": 2103,
      "m a i _ d a d i _ m u b a m b a n t a _ m u b a m b a n t a _ k y a k k y a w a _ m a i _ d a d i": 2104,
      "m a i _ d a d i _ m u b a m b a n t a _ i n a _ s o _ i n a _ s o _ m u b a m b a n t a _ m u b a m b a n t a _ m u b a m b a n t a": 2105,
      "m a i _ d a d i _ m a i _ d a d i _ m a f i _ k y a u _ k y a k y a w a n": 2106,
      "m a i _ d a d i _ m a i _ d a d i _ n a g a r i _ m u b a m b a n t a _ m a i _ d a d i _ m a i _ k y a u _ ": 2107,
      "m a i _ d a d i _ m a i _ k y a u _ k y a k y a w a n _ m u b a m b a n t a": 2108,
      "m a i _ d a d i _ m a i _ k y a u _ k y a k y a w a n _ i n a _ s o _ i n a _ s o _ m a f i _ k y a u _ ": 2109,
      "m a i _ d a d i _ m u b a m b a n t a _ m a i _ d a d i _ n a g a r i": 2110,
      "m a i _ d a d i _ m u b a m b a n t a _ m a i _ d a d i _ m a f i _ k y a u _ k y a k y a w a n": 2111,
      "m a i _ d a d i _ m a f i _ k y a u _ k y a k k y a w a _ m a f i _ k y a u _ m a i _ d a d i _ n a g a r i _ k y a k k y a w a": 2112,
      "m a i _ d a d i _ m a f i _ k y a u _ k y a k k y a w a _ i n a _ s o _ i n a _ s o _ m u b a m b a n t a _ i n a _ s o": 2113,
      "k a m a r _ y a d d a _ y a _ k a m a t a _ n a _ y a u _ d a _ k u l l u n _ b a _ k o m a i _ b a _ k o m a i _ n a _ k o w a": 2114,
      "k a m a r _ y a d d a _ y a _ k a m a t a _ n a _ y a u _ d a _ k u l l u n _ b a _ k o m a i _ n a _ y a u _ d a _ k u l l u n _ n a _ k o w a _ m a t s a k a i c i": 2115,
      "k a m a r _ y a d d a _ y a _ k a m a t a _ n a _ y a u _ d a _ k u l l u n _ d a i d a i _ d a i d a i": 2116,
      "k a m a r _ y a d d a _ y a _ k a m a t a _ n a _ y a u _ d a _ k u l l u n _ d a i d a i _ n a _ a l ' a d a _ d a i d a i _ n a _ g a b a _ ": 2117,
      "a b i n _ t a k a i c i _ m a i _ b a n ƙ y a m a _ b a _ k y a u _ b a _ m a i _ b a n ƙ y a m a _ r a s h i n _ j i n _ d a d i": 2118,
      "a b i n _ t a k a i c i _ m a i _ b a n ƙ y a m a _ m a f i _ m u n i _ a b i n _ t a k a i c i _ n a _ k y a m a": 2119,
      "a b i n _ t a k a i c i _ m u m m u n a _ b a _ k y a u _ b a _ m a i _ b a n ƙ y a m a": 2120,
      "a b i n _ t a k a i c i _ m u m m u n a _ b a _ k y a u _ b a _ r a s h i n _ j i n _ d a d i _ a b i n _ t a k a i c i _ m a i _ m u n i": 2121,
      "a b i n _ t a k a i c i _ r a s h i n _ j i n _ d a d i _ a b i n _ t a k a i c i _ r a s h i n _ j i n _ d a d i": 2122,
      "a b i n _ t a k a i c i _ r a s h i n _ j i n _ d a d i _ a b i n _ t a k a i c i _ m u m m u n a": 2123,
      "a b i n _ t a k a i c i _ m a f i _ m u n i _ n a _ k y a m a _ m a i _ b a n ƙ y a m a _ r a s h i n _ j i n _ d a d i": 2124,
      "a b i n _ t a k a i c i _ m a f i _ m u n i _ n a _ k y a m a _ b a _ k y a u _ b a _ r a s h i n _ j i n _ d a d i _ m a i _ m u n i": 2125,
      "n a _ a l ' a d a _ n a _ y a u _ d a _ k u l l u n _ n a _ y a u _ d a _ k u l l u n": 2126,
      "n a _ a l ' a d a _ n a _ y a u _ d a _ k u l l u n _ m a t s a k a i c i _ b a _ k o m a i _ n a _ g a b a": 2127,
      "n a _ a l ' a d a _ n a _ y a u _ d a _ k u l l u n _ b a _ k o m a i _ m a t s a k a i c i": 2128,
      "n a _ a l ' a d a _ n a _ y a u _ d a _ k u l l u n _ b a _ k o m a i _ n a _ a l ' a d a _ n a _ k o w a _ m a t s a k a i c i": 2129,
      "n a _ a l ' a d a _ m a t s a k a i c i _ m a t s a k a i c i _ b a _ k o m a i _ m a t s a k a i c i": 2130,
      "n a _ a l ' a d a _ m a t s a k a i c i _ m a t s a k a i c i _ n a _ y a u _ d a _ k u l l u n _ k a m a r _ y a d d a _ y a _ k a m a t a _ n a _ a l ' a d a _ n a _ k o w a": 2131,
      "n a _ a l ' a d a _ k a m a r _ y a d d a _ y a _ k a m a t a _ n a _ a l ' a d a _ d a i d a i _ n a _ g a b a _ b a _ k o m a i": 2132,
      "n a _ a l ' a d a _ k a m a r _ y a d d a _ y a _ k a m a t a _ n a _ a l ' a d a _ n a _ a l ' a d a _ n a _ a l ' a d a _ ": 2133,
      "n a _ a l ' a d a _ m a t s a k a i c i _ n a _ a l ' a d a _ k a m a r _ y a d d a _ y a _ k a m a t a _ n a _ y a u _ d a _ k u l l u n": 2134,
      "n a _ a l ' a d a _ m a t s a k a i c i _ n a _ a l ' a d a _ n a _ g a b a _ d a i d a i _ n a _ k o w a": 2135,
      "m u b a m b a n t a _ m a i _ k y a u _ m u b a m b a n t a _ k y a k y a w a n": 2136,
      "m u b a m b a n t a _ m a i _ k y a u _ m u b a m b a n t a _ k y a k k y a w a _ m a i _ d a d i _ m a i _ k y a u _ n a g a r i": 2137,
      "m u b a m b a n t a _ k y a k y a w a n _ i n a _ s o _ i n a _ s o _ i n a _ s o _ k y a k y a w a n _ i n a _ s o": 2138,
      "m u b a m b a n t a _ k y a k y a w a n _ m a i _ k y a u _ i n a _ s o _ m u b a m b a n t a _ m a i _ k y a u _ ": 2139,
      "m u b a m b a n t a _ m a i _ d a d i _ m a f i _ k y a u _ m a i _ k y a u _ m a f i _ k y a u": 2140,
      "m u b a m b a n t a _ m a i _ d a d i _ m a i _ d a d i _ m a i _ k y a u _ k y a k y a w a n _ m a i _ k y a u _ n a g a r i": 2141,
      "m u b a m b a n t a _ m a i _ k y a u _ m a i _ k y a u _ i n a _ s o _ m a f i _ k y a u": 2142,
      "m u b a m b a n t a _ m a i _ k y a u _ m a i _ k y a u _ m a f i _ k y a u _ m a f i _ k y a u": 2143,
      "m u b a m b a n t a _ m a f i _ k y a u _ k y a k y a w a n _ m a f i _ k y a u _ m a i _ k y a u": 2144,
      "m u b a m b a n t a _ m a f i _ k y a u _ k y a k y a w a n _ m a f i _ k y a u _ k y a k k y a w a _ k y a k y a w a n": 2145,
      "m u b a m b a n t a _ m a f i _ k y a u _ k y a k k y a w a _ k y a k y a w a n _ n a g a r i": 2146,
      "m u b a m b a n t a _ m a f i _ k y a u _ k y a k k y a w a _ k y a k k y a w a _ m u b a m b a n t a _ i n a _ s o _ ": 2147,
      "m u b a m b a n t a _ m a f i _ k y a u _ m a f i _ k y a u _ n a g a r i": 2148,
      "m u b a m b a n t a _ m a f i _ k y a u _ m a f i _ k y a u _ m a f i _ k y a u _ i n a _ s o _ k y a k k y a w a _ ": 2149,
      "r a s h i n _ j i n _ d a d i _ m a i _ m u n i _ m a f i _ m u n i _ a b i n _ t a k a i c i _ n a _ k y a m a _ m a f i _ m u n i _ n a _ k y a m a": 2150,
      "r a s h i n _ j i n _ d a d i _ m a i _ m u n i _ m a f i _ m u n i _ m u m m u n a _ m a i _ m u n i _ m a f i _ m u n i _ n a _ k y a m a": 2151,
      "r a s h i n _ j i n _ d a d i _ m u m m u n a _ b a _ k y a u _ b a _ n a _ k y a m a _ n a _ k y a m a _ m a f i _ m u n i _ m a i _ b a n ƙ y a m a": 2152,
      "r a s h i n _ j i n _ d a d i _ m u m m u n a _ b a _ k y a u _ b a _ m a f i _ m u n i _ m a f i _ m u n i _ m a i _ b a n ƙ y a m a": 2153,
      "r a s h i n _ j i n _ d a d i _ m a f i _ m u n i _ a b i n _ t a k a i c i _ m a i _ b a n ƙ y a m a _ b a _ k y a u _ b a": 2154,
      "r a s h i n _ j i n _ d a d i _ m a f i _ m u n i _ a b i n _ t a k a i c i _ m a i _ b a n ƙ y a m a _ m u m m u n a": 2155,
      "m a i _ m u n i _ r a s h i n _ j i n _ d a d i _ r a s h i n _ j i n _ d a d i _ m a i _ b a n ƙ y a m a _ r a s h i n _ j i n _ d a d i _ b a _ k y a u _ b a _ ": 2156,
      "m a i _ m u n i _ r a s h i n _ j i n _ d a d i _ r a s h i n _ j i n _ d a d i _ m a f i _ m u n i _ b a _ k y a u _ b a _ n a _ k y a m a": 2157,
      "m a i _ m u n i _ m a i _ b a n ƙ y a m a _ n a _ k y a m a _ n a _ k y a m a": 2158,
      "m a i _ m u n i _ m a i _ b a n ƙ y a m a _ n a _ k y a m a _ m u m m u n a": 2159,
      "m a i _ m u n i _ m a i _ m u n i _ m a i _ b a n ƙ y a m a _ m a i _ m u n i": 2160,
      "m a i _ m u n i _ m a i _ m u n i _ m a i _ b a n ƙ y a m a _ m a i _ b a n ƙ y a m a": 2161,
      "m a i _ m u n i _ b a _ k y a u _ b a _ m u m m u n a _ m a i _ m u n i": 2162,
      "m a i _ m u n i _ b a _ k y a u _ b a _ m u m m u n a _ m u m m u n a _ m u m m u n a _ b a _ k y a u _ b a _ ": 2163,
      "m a i _ m u n i _ b a _ k y a u _ b a _ m a i _ b a n ƙ y a m a _ m a i _ m u n i": 2164,
      "m a i _ m u n i _ b a _ k y a u _ b a _ m a i _ b a n ƙ y a m a _ m a i _ b a n ƙ y a m a _ a b i n _ t a k a i c i": 2165,
      "m a f i _ k y a u _ m a f i _ k y a u _ m u b a m b a n t a _ k y a k k y a w a _ m a i _ d a d i _ i n a _ s o _ m a f i _ k y a u": 2166,
      "m a f i _ k y a u _ m a f i _ k y a u _ m u b a m b a n t a _ m a i _ k y a u _ m a i _ d a d i": 2167,
      "m a f i _ k y a u _ m u b a m b a n t a _ k y a k k y a w a _ m a f i _ k y a u _ m a f i _ k y a u": 2168,
      "m a f i _ k y a u _ m u b a m b a n t a _ k y a k k y a w a _ m a i _ k y a u _ m a f i _ k y a u _ m a i _ d a d i _ m a f i _ k y a u": 2169,
      "m a t s a k a i c i _ m a t s a k a i c i _ d a i d a i _ k a m a r _ y a d d a _ y a _ k a m a t a _ n a _ y a u _ d a _ k u l l u n": 2170,
      "m a t s a k a i c i _ m a t s a k a i c i _ d a i d a i _ n a _ y a u _ d a _ k u l l u n _ n a _ g a b a _ n a _ k o w a _ n a _ a l ' a d a": 2171,
      "m a t s a k a i c i _ n a _ y a u _ d a _ k u l l u n _ d a i d a i _ d a i d a i": 2172,
      "m a t s a k a i c i _ n a _ y a u _ d a _ k u l l u n _ d a i d a i _ k a m a r _ y a d d a _ y a _ k a m a t a _ d a i d a i _ b a _ k o m a i _ d a i d a i": 2173,
      "m a t s a k a i c i _ k a m a r _ y a d d a _ y a _ k a m a t a _ n a _ a l ' a d a _ n a _ a l ' a d a": 2174,
      "m a t s a k a i c i _ k a m a r _ y a d d a _ y a _ k a m a t a _ n a _ a l ' a d a _ m a t s a k a i c i": 2175,
      "n a _ g a b a _ n a _ k o w a _ n a _ y a u _ d a _ k u l l u n": 2176,
      "n a _ g a b a _ n a _ k o w a _ n a _ k o w a _ k a m a r _ y a d d a _ y a _ k a m a t a _ b a _ k o m a i _ k a m a r _ y a d d a _ y a _ k a m a t a": 2177,
      "n a _ g a b a _ n a _ a l ' a d a _ m a t s a k a i c i _ n a _ a l ' a d a": 2178,
      "n a _ g a b a _ n a _ a l ' a d a _ n a _ k o w a _ n a _ g a b a": 2179,
      "n a _ g a b a _ n a _ y a u _ d a _ k u l l u n _ b a _ k o m a i _ n a _ a l ' a d a _ n a _ a l ' a d a": 2180,
      "n a _ g a b a _ n a _ y a u _ d a _ k u l l u n _ b a _ k o m a i _ n a _ k o w a _ d a i d a i _ d a i d a i _ n a _ g a b a": 2181,
      "n a _ g a b a _ d a i d a i _ d a i d a i _ m a t s a k a i c i _ n a _ g a b a _ n a _ k o w a _ n a _ y a u _ d a _ k u l l u n": 2182,
      "n a _ g a b a _ d a i d a i _ d a i d a i _ n a _ y a u _ d a _ k u l l u n _ k a m a r _ y a d d a _ y a _ k a m a t a _ b a _ k o m a i _ n a _ a l ' a d a": 2183,
      "m a f i _ m u n i _ n a _ k y a m a _ a b i n _ t a k a i c i _ m a f i _ m u n i _ m a f i _ m u n i _ m a i _ b a n ƙ y a m a": 2184,
      "m a f i _ m u n i _ n a _ k y a m a _ a b i n _ t a k a i c i _ m a i _ m u n i _ m a i _ m u n i _ a b i n _ t a k a i c i": 2185,
      "m a f i _ m u n i _ m a f i _ m u n i _ r a s h i n _ j i n _ d a d i _ a b i n _ t a k a i c i _ m u m m u n a": 2186,
      "k y a k y a w a n _ n a g a r i _ k y a k y a w a n _ k y a k y a w a n _ i n a _ s o _ m a f i _ k y a u _ ": 2187,
      "k y a k y a w a n _ n a g a r i _ k y a k y a w a n _ m a f i _ k y a u _ m a i _ d a d i _ m a i _ k y a u": 2188,
      "n a _ k y a m a _ b a _ k y a u _ b a _ b a _ k y a u _ b a _ n a _ k y a m a _ m u m m u n a _ ": 2189,
      "n a _ k y a m a _ b a _ k y a u _ b a _ m a i _ m u n i _ m a f i _ m u n i _ m a f i _ m u n i _ m a f i _ m u n i": 2190,
      "n a _ k y a m a _ m a i _ b a n ƙ y a m a _ m a i _ m u n i _ n a _ k y a m a _ m a i _ b a n ƙ y a m a _ r a s h i n _ j i n _ d a d i _ r a s h i n _ j i n _ d a d i": 2191,
      "n a _ k y a m a _ m a i _ b a n ƙ y a m a _ m a i _ m u n i _ m u m m u n a _ m a i _ m u n i _ m a i _ m u n i _ r a s h i n _ j i n _ d a d i": 2192,
      "n a _ k o w a _ d a i d a i _ b a _ k o m a i": 2193,
      "n a _ k o w a _ d a i d a i _ m a t s a k a i c i _ m a t s a k a i c i _ d a i d a i _ b a _ k o m a i _ n a _ k o w a": 2194,
      "n a _ k o w a _ m a t s a k a i c i _ d a i d a i _ b a _ k o m a i _ k a m a r _ y a d d a _ y a _ k a m a t a _ n a _ y a u _ d a _ k u l l u n _ k a m a r _ y a d d a _ y a _ k a m a t a": 2195,
      "n a _ k o w a _ m a t s a k a i c i _ n a _ k o w a _ n a _ y a u _ d a _ k u l l u n _ k a m a r _ y a d d a _ y a _ k a m a t a _ d a i d a i": 2196,
      "n a _ k o w a _ n a _ g a b a _ b a _ k o m a i _ n a _ g a b a _ d a i d a i": 2197,
      "n a _ k o w a _ n a _ g a b a _ b a _ k o m a i _ n a _ y a u _ d a _ k u l l u n _ n a _ a l ' a d a": 2198,
      "n a _ k o w a _ d a i d a i _ n a _ y a u _ d a _ k u l l u n _ n a _ y a u _ d a _ k u l l u n": 2199,
      "n a _ k o w a _ d a i d a i _ n a _ y a u _ d a _ k u l l u n _ m a t s a k a i c i _ k a m a r _ y a d d a _ y a _ k a m a t a": 2200,
      "b a _ k y a u _ b a _ b a _ k y a u _ b a _ n a _ k y a m a _ m a f i _ m u n i _ m u m m u n a _ ": 2201,
      "b a _ k y a u _ b a _ b a _ k y a u _ b a _ r a s h i n _ j i n _ d a d i _ r a s h i n _ j i n _ d a d i _ m u m m u n a _ r a s h i n _ j i n _ d a d i _ m a f i _ m u n i": 2202,
      "b a _ k y a u _ b a _ m u m m u n a _ a b i n _ t a k a i c i _ b a _ k y a u _ b a _ b a _ k y a u _ b a": 2203,
      "b a _ k y a u _ b a _ m u m m u n a _ a b i n _ t a k a i c i _ n a _ k y a m a _ m a i _ b a n ƙ y a m a _ a b i n _ t a k a i c i": 2204,
      "i n a _ s o _ m a f i _ k y a u _ n a g a r i _ m a i _ k y a u _ k y a k k y a w a": 2205,
      "i n a _ s o _ m a f i _ k y a u _ n a g a r i _ m a i _ d a d i _ n a g a r i _ m a f i _ k y a u": 2206,
      "i n a _ s o _ m a i _ k y a u _ k y a k k y a w a _ m a f i _ k y a u _ n a g a r i": 2207,
      "i n a _ s o _ m a i _ k y a u _ k y a k k y a w a _ k y a k k y a w a _ m a f i _ k y a u _ k y a k y a w a n _ ": 2208,
      "i n a _ s o _ k y a k y a w a n _ m a i _ d a d i _ m a i _ d a d i _ n a g a r i": 2209,
      "i n a _ s o _ k y a k y a w a n _ m a i _ d a d i _ i n a _ s o _ n a g a r i": 2210,
      "m u m m u n a _ n a _ k y a m a _ m a i _ b a n ƙ y a m a _ n a _ k y a m a _ m a i _ b a n ƙ y a m a": 2211,
      "m u m m u n a _ n a _ k y a m a _ r a s h i n _ j i n _ d a d i _ m u m m u n a _ m a i _ b a n ƙ y a m a": 2212,
      "m u m m u n a _ m u m m u n a _ n a _ k y a m a _ m a i _ b a n ƙ y a m a _ m a f i _ m u n i _ b a _ k y a u _ b a": 2213,
      "m u m m u n a _ m u m m u n a _ n a _ k y a m a _ m a i _ m u n i _ b a _ k y a u _ b a _ r a s h i n _ j i n _ d a d i": 2214,
      "##i n a _ s o _ m a i _ d a d i _ m a f i _ k y a u _ i n a _ s o": 2215,
      "##b a _ k y a u _ b a _ a b i n _ t a k a i c i _ a b i n _ t a k a i c i _ m a f i _ m u n i": 2216,
      "k a m a r _ y a d d a _ y a _ k a m a t a _ b a _ k o m a i _ k a m a r _ y a d d a _ y a _ k a m a t a _ m a t s a k a i c i _ n a _ y a u _ d a _ k u l l u n _ d a i d a i _ b a _ k o m a i": 2217,
      "k a m a r _ y a d d a _ y a _ k a m a t a _ b a _ k o m a i _ k a m a r _ y a d d a _ y a _ k a m a t a _ m a t s a k a i c i _ n a _ g a b a _ n a _ y a u _ d a _ k u l l u n": 2218,
      "m u m m u n a _ a b i n _ t a k a i c i _ a b i n _ t a k a i c i _ m a i _ b a n ƙ y a m a _ n a _ k y a m a": 2219,
      "m u m m u n a _ a b i n _ t a k a i c i _ a b i n _ t a k a i c i _ n a _ k y a m a _ r a s h i n _ j i n _ d a d i _ m u m m u n a": 2220,
      "m u b a m b a n t a _ m a f i _ k y a u _ i n a _ s o _ k y a k y a w a n _ k y a k y a w a n _ i n a _ s o": 2221,
      "m u b a m b a n t a _ m a f i _ k y a u _ i n a _ s o _ k y a k y a w a n _ k y a k k y a w a _ m u b a m b a n t a _ m u b a m b a n t a": 2222,
      "n a _ k y a m a _ a b i n _ t a k a i c i _ m a i _ m u n i _ m a i _ b a n ƙ y a m a _ m a i _ m u n i _ n a _ k y a m a": 2223,
      "n a _ k y a m a _ a b i n _ t a k a i c i _ m a i _ m u n i _ m a i _ b a n ƙ y a m a _ m u m m u n a _ m a f i _ m u n i _ b a _ k y a u _ b a": 2224,
      "a b i n _ t a k a i c i _ m a i _ m u n i _ r a s h i n _ j i n _ d a d i _ m a i _ b a n ƙ y a m a _ n a _ k y a m a _ m a i _ b a n ƙ y a m a": 2225,
      "a b i n _ t a k a i c i _ m a i _ m u n i _ r a s h i n _ j i n _ d a d i _ m a i _ b a n ƙ y a m a _ n a _ k y a m a _ b a _ k y a u _ b a _ n a _ k y a m a": 2226,
      "m a i _ m u n i _ a b i n _ t a k a i c i _ a b i n _ t a k a i c i _ b a _ k y a u _ b a": 2227,
      "##m a t s a k a i c i _ d a i d a i _ n a _ g a b a _ k a m a r _ y a d d a _ y a _ k a m a t a": 2228,
      "##m a t s a k a i c i _ k a m a r _ y a d d a _ y a _ k a m a t a _ n a _ y a u _ d a _ k u l l u n _ d a i d a i": 2229,
      "##n a g a r i _ m a f i _ k y a u _ m a i _ d a d i _ m a f i _ k y a u": 2230,
      "##m a f i _ m u n i _ r a s h i n _ j i n _ d a d i _ n a _ k y a m a _ r a s h i n _ j i n _ d a d i": 2231,
      "##m a i _ b a n ƙ y a m a _ m a i _ m u n i _ b a _ k y a u _ b a _ m a i _ b a n ƙ y a m a": 2232,
      "##n a _ a l ' a d a _ k a m a r _ y a d d a _ y a _ k a m a t a _ n a _ y a u _ d a _ k u l l u n _ b a _ k o m a i": 2233,
      "##n a _ a l ' a d a _ n a _ g a b a _ n a _ y a u _ d a _ k u l l u n _ d a i d a i": 2234,
      "##n a _ a l ' a d a _ k a m a r _ y a d d a _ y a _ k a m a t a _ b a _ k o m a i _ b a _ k o m a i": 2235,
      "m a f i _ m u n i _ a b i n _ t a k a i c i _ a b i n _ t a k a i c i _ m a f i _ m u n i _ n a _ k y a m a _ a b i n _ t a k a i c i _ m u m m u n a": 2236,
      "n a g a r i _ m u b a m b a n t a _ k y a k k y a w a _ m a i _ d a d i _ k y a k y a w a n": 2237,
      "n a g a r i _ n a g a r i _ k y a k k y a w a _ m u b a m b a n t a _ k y a k y a w a n": 2238,
      "n a g a r i _ m a i _ k y a u _ k y a k y a w a n _ m a i _ k y a u _ m a i _ d a d i _ n a g a r i": 2239,
      "n a g a r i _ m u b a m b a n t a _ m a i _ d a d i _ m a i _ d a d i _ n a g a r i _ m a i _ k y a u": 2240,
      "n a g a r i _ i n a _ s o _ m a i _ k y a u _ k y a k y a w a n _ k y a k y a w a n _ k y a k y a w a n": 2241,
      "n a g a r i _ m a f i _ k y a u _ n a g a r i _ m u b a m b a n t a _ m a i _ k y a u _ n a g a r i _ k y a k k y a w a": 2242,
      "n a g a r i _ i n a _ s o _ m a i _ d a d i _ m a f i _ k y a u _ n a g a r i _ n a g a r i": 2243,
      "n a g a r i _ m a f i _ k y a u _ i n a _ s o _ m a i _ d a d i _ k y a k y a w a n _ m a i _ k y a u": 2244,
      "m a i _ b a n ƙ y a m a _ a b i n _ t a k a i c i _ a b i n _ t a k a i c i _ n a _ k y a m a _ a b i n _ t a k a i c i": 2245,
      "n a _ y a u _ d a _ k u l l u n _ d a i d a i _ d a i d a i _ m a t s a k a i c i _ m a t s a k a i c i _ n a _ g a b a _ n a _ a l ' a d a": 2246,
      "n a _ y a u _ d a _ k u l l u n _ d a i d a i _ b a _ k o m a i _ n a _ k o w a _ n a _ a l ' a d a _ k a m a r _ y a d d a _ y a _ k a m a t a": 2247,
      "n a _ y a u _ d a _ k u l l u n _ d a i d a i _ n a _ g a b a _ d a i d a i _ m a t s a k a i c i _ n a _ y a u _ d a _ k u l l u n": 2248,
      "n a _ y a u _ d a _ k u l l u n _ n a _ g a b a _ b a _ k o m a i _ n a _ a l ' a d a _ k a m a r _ y a d d a _ y a _ k a m a t a _ b a _ k o m a i _ b a _ k o m a i": 2249,
      "n a _ y a u _ d a _ k u l l u n _ m a t s a k a i c i _ m a t s a k a i c i _ b a _ k o m a i": 2250,
      "n a _ y a u _ d a _ k u l l u n _ n a _ g a b a _ n a _ k o w a _ d a i d a i _ b a _ k o m a i _ n a _ g a b a": 2251,
      "n a _ y a u _ d a _ k u l l u n _ k a m a r _ y a d d a _ y a _ k a m a t a _ n a _ y a u _ d a _ k u l l u n _ n a _ y a u _ d a _ k u l l u n _ n a _ k o w a _ n a _ a l ' a d a": 2252,
      "n a _ y a u _ d a _ k u l l u n _ d a i d a i _ m a t s a k a i c i _ b a _ k o m a i _ n a _ g a b a _ b a _ k o m a i": 2253,
      "n a _ y a u _ d a _ k u l l u n _ n a _ k o w a _ k a m a r _ y a d d a _ y a _ k a m a t a _ n a _ y a u _ d a _ k u l l u n": 2254,
      "n a _ y a u _ d a _ k u l l u n _ d a i d a i _ n a _ y a u _ d a _ k u l l u n _ n a _ g a b a _ d a i d a i": 2255,
      "n a _ y a u _ d a _ k u l l u n _ k a m a r _ y a d d a _ y a _ k a m a t a _ b a _ k o m a i _ n a _ g a b a": 2256,
      "n a _ y a u _ d a _ k u l l u n _ k a m a r _ y a d d a _ y a _ k a m a t a _ k a m a r _ y a d d a _ y a _ k a m a t a _ m a t s a k a i c i _ n a _ k o w a _ n a _ a l ' a d a": 2257,
      "n a _ y a u _ d a _ k u l l u n _ n a _ k o w a _ b a _ k o m a i _ n a _ y a u _ d a _ k u l l u n _ b a _ k o m a i _ b a _ k o m a i _ d a i d a i": 2258,
      "n a _ y a u _ d a _ k u l l u n _ n a _ k o w a _ n a _ k o w a _ m a t s a k a i c i _ k a m a r _ y a d d a _ y a _ k a m a t a _ b a _ k o m a i _ n a _ a l ' a d a": 2259,
      "n a _ y a u _ d a _ k u l l u n _ n a _ g a b a _ k a m a r _ y a d d a _ y a _ k a m a t a _ n a _ k o w a": 2260,
      "m a i _ b a n ƙ y a m a _ m u m m u n a _ b a _ k y a u _ b a _ m a f i _ m u n i _ b a _ k y a u _ b a _ m a f i _ m u n i _ b a _ k y a u _ b a": 2261,
      "m a i _ b a n ƙ y a m a _ m a f i _ m u n i _ b a _ k y a u _ b a _ r a s h i n _ j i n _ d a d i _ b a _ k y a u _ b a _ b a _ k y a u _ b a _ m a i _ m u n i": 2262,
      "m a i _ b a n ƙ y a m a _ r a s h i n _ j i n _ d a d i _ r a s h i n _ j i n _ d a d i _ r a s h i n _ j i n _ d a d i _ m a i _ b a n ƙ y a m a": 2263,
      "m a i _ b a n ƙ y a m a _ m a i _ m u n i _ n a _ k y a m a _ r a s h i n _ j i n _ d a d i _ b a _ k y a u _ b a": 2264,
      "m a i _ b a n ƙ y a m a _ n a _ k y a m a _ a b i n _ t a k a i c i _ m a f i _ m u n i _ m u m m u n a _ n a _ k y a m a _ b a _ k y a u _ b a": 2265,
      "m a i _ b a n ƙ y a m a _ m a i _ b a n ƙ y a m a _ m a i _ b a n ƙ y a m a _ r a s h i n _ j i n _ d a d i _ a b i n _ t a k a i c i": 2266,
      "m a i _ b a n ƙ y a m a _ r a s h i n _ j i n _ d a d i _ n a _ k y a m a _ r a s h i n _ j i n _ d a d i _ m u m m u n a": 2267,
      "m a i _ b a n ƙ y a m a _ r a s h i n _ j i n _ d a d i _ m u m m u n a _ m a f i _ m u n i _ m a i _ b a n ƙ y a m a": 2268,
      "m a i _ b a n ƙ y a m a _ m a i _ m u n i _ m a i _ b a n ƙ y a m a _ m a i _ m u n i _ r a s h i n _ j i n _ d a d i _ b a _ k y a u _ b a": 2269,
      "m a i _ b a n ƙ y a m a _ r a s h i n _ j i n _ d a d i _ a b i n _ t a k a i c i _ r a s h i n _ j i n _ d a d i _ a b i n _ t a k a i c i _ m a i _ b a n ƙ y a m a": 2270,
      "m a i _ b a n ƙ y a m a _ m u m m u n a _ a b i n _ t a k a i c i _ m a i _ b a n ƙ y a m a _ n a _ k y a m a _ b a _ k y a u _ b a _ b a _ k y a u _ b a": 2271,
      "m a i _ b a n ƙ y a m a _ m a i _ m u n i _ m a i _ m u n i _ m a f i _ m u n i _ m u m m u n a": 2272,
      "m a i _ b a n ƙ y a m a _ r a s h i n _ j i n _ d a d i _ b a _ k y a u _ b a _ b a _ k y a u _ b a _ a b i n _ t a k a i c i _ b a _ k y a u _ b a _ m a i _ b a n ƙ y a m a": 2273,
      "m a i _ b a n ƙ y a m a _ n a _ k y a m a _ m u m m u n a _ m a f i _ m u n i": 2274,
      "m a i _ b a n ƙ y a m a _ b a _ k y a u _ b a _ m u m m u n a _ m a f i _ m u n i _ b a _ k y a u _ b a _ b a _ k y a u _ b a": 2275,
      "m a i _ b a n ƙ y a m a _ m a i _ m u n i _ m u m m u n a _ b a _ k y a u _ b a _ a b i n _ t a k a i c i": 2276,
      "m a i _ b a n ƙ y a m a _ m u m m u n a _ n a _ k y a m a _ m a f i _ m u n i _ m u m m u n a": 2277,
      "m a i _ b a n ƙ y a m a _ r a s h i n _ j i n _ d a d i _ m a i _ b a n ƙ y a m a _ b a _ k y a u _ b a _ b a _ k y a u _ b a _ a b i n _ t a k a i c i": 2278,
      "m a i _ b a n ƙ y a m a _ m a i _ m u n i _ b a _ k y a u _ b a _ a b i n _ t a k a i c i _ b a _ k y a u _ b a _ n a _ k y a m a": 2279,
      "m a i _ b a n ƙ y a m a _ m a i _ m u n i _ a b i n _ t a k a i c i _ a b i n _ t a k a i c i _ m a i _ b a n ƙ y a m a _ a b i n _ t a k a i c i _ m a i _ b a n ƙ y a m a": 2280,
      "m a i _ k y a u _ n a g a r i _ m u b a m b a n t a _ n a g a r i _ m a f i _ k y a u _ m a i _ d a d i _ m a f i _ k y a u": 2281,
      "m a i _ k y a u _ m a i _ d a d i _ m a i _ k y a u _ m a i _ k y a u _ k y a k k y a w a _ k y a k k y a w a": 2282,
      "m a i _ k y a u _ m a i _ k y a u _ k y a k k y a w a _ m a i _ d a d i": 2283,
      "m a i _ k y a u _ i n a _ s o _ k y a k y a w a n _ m a i _ k y a u _ m a i _ k y a u _ m a i _ k y a u": 2284,
      "m a i _ k y a u _ i n a _ s o _ m a f i _ k y a u _ m a f i _ k y a u _ k y a k y a w a n": 2285,
      "m a i _ k y a u _ n a g a r i _ k y a k k y a w a _ m a f i _ k y a u": 2286,
      "m a i _ k y a u _ m a i _ k y a u _ k y a k y a w a n _ n a g a r i _ m u b a m b a n t a _ k y a k y a w a n": 2287,
      "m a i _ k y a u _ i n a _ s o _ m a i _ d a d i _ m a i _ d a d i": 2288,
      "m a i _ k y a u _ i n a _ s o _ k y a k k y a w a _ n a g a r i _ k y a k k y a w a _ m a i _ k y a u": 2289,
      "m a i _ k y a u _ n a g a r i _ m a i _ k y a u _ m a i _ k y a u _ k y a k k y a w a _ n a g a r i": 2290,
      "m a i _ k y a u _ m u b a m b a n t a _ m a i _ k y a u _ n a g a r i _ m a i _ k y a u": 2291,
      "m a i _ k y a u _ k y a k y a w a n _ n a g a r i _ i n a _ s o _ m a i _ d a d i _ m u b a m b a n t a _ m a i _ k y a u": 2292,
      "m a i _ k y a u _ m u b a m b a n t a _ m u b a m b a n t a _ k y a k y a w a n _ k y a k k y a w a _ k y a k k y a w a _ k y a k k y a w a": 2293,
      "m a i _ k y a u _ i n a _ s o _ m a f i _ k y a u _ m a f i _ k y a u _ n a g a r i _ m a f i _ k y a u": 2294,
      "m a i _ k y a u _ n a g a r i _ n a g a r i _ k y a k k y a w a _ k y a k k y a w a _ n a g a r i _ n a g a r i": 2295,
      "m a i _ k y a u _ m a i _ k y a u _ m a i _ d a d i _ m a i _ k y a u _ m u b a m b a n t a _ i n a _ s o": 2296,
      "m a i _ k y a u _ i n a _ s o _ n a g a r i _ k y a k y a w a n _ m a f i _ k y a u _ k y a k y a w a n _ m a f i _ k y a u": 2297,
      "k y a k k y a w a _ i n a _ s o _ k y a k y a w a n _ m u b a m b a n t a _ i n a _ s o _ m a i _ d a d i _ k y a k k y a w a": 2298,
      "k y a k k y a w a _ i n a _ s o _ m a f i _ k y a u _ n a g a r i _ k y a k k y a w a": 2299,
      "k y a k k y a w a _ k y a k y a w a n _ m a i _ d a d i _ k y a k y a w a n _ i n a _ s o _ m a i _ d a d i _ k y a k k y a w a": 2300,
      "k y a k k y a w a _ m u b a m b a n t a _ m a f i _ k y a u _ k y a k y a w a n": 2301,
      "k y a k k y a w a _ n a g a r i _ m a i _ d a d i _ i n a _ s o _ m u b a m b a n t a _ m a f i _ k y a u": 2302,
      "k y a k k y a w a _ n a g a r i _ m a i _ k y a u _ i n a _ s o _ m a i _ d a d i _ k y a k y a w a n": 2303,
      "k y a k k y a w a _ m a i _ k y a u _ m u b a m b a n t a _ n a g a r i _ k y a k k y a w a _ m a f i _ k y a u _ n a g a r i": 2304,
      "k y a k k y a w a _ n a g a r i _ n a g a r i _ m u b a m b a n t a _ i n a _ s o _ k y a k k y a w a _ m a f i _ k y a u": 2305,
      "k y a k k y a w a _ n a g a r i _ n a g a r i _ k y a k k y a w a _ m u b a m b a n t a _ n a g a r i _ m a i _ d a d i": 2306,
      "k y a k k y a w a _ m a i _ k y a u _ i n a _ s o _ m a f i _ k y a u _ m a f i _ k y a u _ i n a _ s o": 2307,
      "k y a k k y a w a _ m a f i _ k y a u _ m a i _ k y a u _ k y a k k y a w a _ m a i _ k y a u _ m u b a m b a n t a": 2308,
      "d a i d a i _ n a _ k o w a _ m a t s a k a i c i _ b a _ k o m a i _ m a t s a k a i c i _ m a t s a k a i c i": 2309,
      "d a i d a i _ d a i d a i _ d a i d a i _ n a _ k o w a _ d a i d a i _ m a t s a k a i c i _ n a _ y a u _ d a _ k u l l u n": 2310,
      "d a i d a i _ d a i d a i _ n a _ g a b a _ n a _ a l ' a d a _ n a _ g a b a _ n a _ y a u _ d a _ k u l l u n _ d a i d a i": 2311,
      "d a i d a i _ n a _ y a u _ d a _ k u l l u n _ d a i d a i _ n a _ y a u _ d a _ k u l l u n _ d a i d a i _ k a m a r _ y a d d a _ y a _ k a m a t a _ b a _ k o m a i": 2312,
      "d a i d a i _ d a i d a i _ k a m a r _ y a d d a _ y a _ k a m a t a _ n a _ k o w a _ b a _ k o m a i": 2313,
      "d a i d a i _ n a _ k o w a _ n a _ k o w a _ d a i d a i _ b a _ k o m a i _ d a i d a i": 2314,
      "d a i d a i _ n a _ g a b a _ n a _ y a u _ d a _ k u l l u n _ n a _ a l ' a d a _ b a _ k o m a i": 2315,
      "d a i d a i _ n a _ g a b a _ n a _ a l ' a d a _ d a i d a i": 2316,
      "d a i d a i _ k a m a r _ y a d d a _ y a _ k a m a t a _ k a m a r _ y a d d a _ y a _ k a m a t a _ n a _ y a u _ d a _ k u l l u n _ b a _ k o m a i _ n a _ g a b a _ k a m a r _ y a d d a _ y a _ k a m a t a": 2317,
      "d a i d a i _ n a _ k o w a _ n a _ k o w a _ m a t s a k a i c i _ d a i d a i _ m a t s a k a i c i _ n a _ k o w a": 2318,
      "d a i d a i _ m a t s a k a i c i _ n a _ k o w a _ k a m a r _ y a d d a _ y a _ k a m a t a _ d a i d a i _ n a _ a l ' a d a": 2319,
      "d a i d a i _ n a _ g a b a _ k a m a r _ y a d d a _ y a _ k a m a t a _ m a t s a k a i c i _ k a m a r _ y a d d a _ y a _ k a m a t a": 2320,
      "d a i d a i _ n a _ g a b a _ n a _ g a b a _ n a _ y a u _ d a _ k u l l u n _ n a _ k o w a _ n a _ a l ' a d a": 2321,
      "d a i d a i _ n a _ g a b a _ d a i d a i _ n a _ y a u _ d a _ k u l l u n _ n a _ y a u _ d a _ k u l l u n": 2322,
      "k a m a r _ y a d d a _ y a _ k a m a t a _ k a m a r _ y a d d a _ y a _ k a m a t a _ m a t s a k a i c i _ n a _ g a b a": 2323,
      "b a _ k o m a i _ n a _ y a u _ d a _ k u l l u n _ b a _ k o m a i _ n a _ k o w a _ n a _ g a b a": 2324,
      "b a _ k o m a i _ d a i d a i _ d a i d a i _ d a i d a i _ d a i d a i _ n a _ k o w a": 2325,
      "b a _ k o m a i _ n a _ y a u _ d a _ k u l l u n _ d a i d a i _ m a t s a k a i c i": 2326,
      "b a _ k o m a i _ n a _ g a b a _ n a _ k o w a _ d a i d a i _ n a _ g a b a _ b a _ k o m a i": 2327,
      "b a _ k o m a i _ k a m a r _ y a d d a _ y a _ k a m a t a _ n a _ a l ' a d a _ m a t s a k a i c i _ n a _ k o w a": 2328,
      "b a _ k o m a i _ d a i d a i _ n a _ y a u _ d a _ k u l l u n _ n a _ k o w a _ m a t s a k a i c i _ k a m a r _ y a d d a _ y a _ k a m a t a": 2329,
      "b a _ k o m a i _ n a _ g a b a _ n a _ y a u _ d a _ k u l l u n _ n a _ y a u _ d a _ k u l l u n _ b a _ k o m a i _ n a _ a l ' a d a _ m a t s a k a i c i": 2330,
      "b a _ k o m a i _ m a t s a k a i c i _ b a _ k o m a i _ n a _ a l ' a d a _ d a i d a i": 2331,
      "b a _ k o m a i _ k a m a r _ y a d d a _ y a _ k a m a t a _ b a _ k o m a i _ d a i d a i _ d a i d a i": 2332,
      "b a _ k o m a i _ n a _ k o w a _ b a _ k o m a i _ n a _ g a b a _ b a _ k o m a i _ n a _ g a b a": 2333,
      "b a _ k o m a i _ b a _ k o m a i _ k a m a r _ y a d d a _ y a _ k a m a t a _ m a t s a k a i c i _ n a _ a l ' a d a _ k a m a r _ y a d d a _ y a _ k a m a t a": 2334,
      "b a _ k o m a i _ n a _ k o w a _ n a _ g a b a _ k a m a r _ y a d d a _ y a _ k a m a t a _ k a m a r _ y a d d a _ y a _ k a m a t a _ n a _ g a b a": 2335,
      "b a _ k o m a i _ n a _ k o w a _ d a i d a i _ n a _ k o w a _ m a t s a k a i c i _ n a _ k o w a _ n a _ g a b a": 2336,
      "b a _ k o m a i _ n a _ k o w a _ k a m a r _ y a d d a _ y a _ k a m a t a _ m a t s a k a i c i _ m a t s a k a i c i _ k a m a r _ y a d d a _ y a _ k a m a t a": 2337,
      "m a i _ d a d i _ m u b a m b a n t a _ k y a k k y a w a _ m a i _ k y a u _ k y a k k y a w a _ m u b a m b a n t a": 2338,
      "m a i _ d a d i _ i n a _ s o _ m a f i _ k y a u _ m a i _ k y a u _ i n a _ s o": 2339,
      "m a i _ d a d i _ n a g a r i _ k y a k k y a w a _ m u b a m b a n t a _ k y a k k y a w a _ m u b a m b a n t a": 2340,
      "m a i _ d a d i _ m a f i _ k y a u _ m a i _ d a d i _ m a f i _ k y a u _ m a i _ k y a u _ n a g a r i _ m u b a m b a n t a": 2341,
      "m a i _ d a d i _ i n a _ s o _ k y a k k y a w a _ m u b a m b a n t a _ m a i _ k y a u": 2342,
      "m a i _ d a d i _ i n a _ s o _ i n a _ s o _ m a i _ d a d i": 2343,
      "m a i _ d a d i _ n a g a r i _ m a i _ d a d i _ m a i _ k y a u": 2344,
      "m a i _ d a d i _ n a g a r i _ m a f i _ k y a u _ k y a k k y a w a _ k y a k k y a w a": 2345,
      "m a i _ d a d i _ n a g a r i _ i n a _ s o _ k y a k k y a w a _ m a i _ d a d i _ m u b a m b a n t a _ m a i _ d a d i": 2346,
      "m a i _ d a d i _ m a f i _ k y a u _ m a i _ k y a u _ k y a k y a w a n _ m u b a m b a n t a _ m a i _ k y a u": 2347,
      "k a m a r _ y a d d a _ y a _ k a m a t a _ m a t s a k a i c i _ b a _ k o m a i _ n a _ g a b a _ b a _ k o m a i _ b a _ k o m a i _ b a _ k o m a i": 2348,
      "k a m a r _ y a d d a _ y a _ k a m a t a _ n a _ g a b a _ n a _ a l ' a d a _ n a _ y a u _ d a _ k u l l u n _ n a _ a l ' a d a _ n a _ g a b a": 2349,
      "k a m a r _ y a d d a _ y a _ k a m a t a _ n a _ k o w a _ n a _ a l ' a d a _ n a _ y a u _ d a _ k u l l u n": 2350,
      "k a m a r _ y a d d a _ y a _ k a m a t a _ n a _ k o w a _ b a _ k o m a i _ m a t s a k a i c i _ k a m a r _ y a d d a _ y a _ k a m a t a _ n a _ y a u _ d a _ k u l l u n _ d a i d a i": 2351,
      "k a m a r _ y a d d a _ y a _ k a m a t a _ n a _ k o w a _ n a _ k o w a _ m a t s a k a i c i _ n a _ k o w a _ n a _ g a b a": 2352,
      "k a m a r _ y a d d a _ y a _ k a m a t a _ d a i d a i _ n a _ a l ' a d a _ n a _ g a b a _ m a t s a k a i c i": 2353,
      "k a m a r _ y a d d a _ y a _ k a m a t a _ m a t s a k a i c i _ n a _ y a u _ d a _ k u l l u n _ n a _ a l ' a d a": 2354,
      "k a m a r _ y a d d a _ y a _ k a m a t a _ m a t s a k a i c i _ n a _ k o w a _ k a m a r _ y a d d a _ y a _ k a m a t a _ d a i d a i _ m a t s a k a i c i": 2355,
      "k a m a r _ y a d d a _ y a _ k a m a t a _ m a t s a k a i c i _ n a _ k o w a _ b a _ k o m a i _ m a t s a k a i c i": 2356,
      "r a s h i n _ j i n _ d a d i _ a b i n _ t a k a i c i _ a b i n _ t a k a i c i _ n a _ k y a m a _ m u m m u n a": 2357,
      "a b i n _ t a k a i c i _ m a i _ m u n i _ m a i _ b a n ƙ y a m a _ m a f i _ m u n i _ m a f i _ m u n i": 2358,
      "a b i n _ t a k a i c i _ b a _ k y a u _ b a _ a b i n _ t a k a i c i _ m a i _ b a n ƙ y a m a _ m a i _ b a n ƙ y a m a _ b a _ k y a u _ b a": 2359,
      "a b i n _ t a k a i c i _ m a i _ m u n i _ a b i n _ t a k a i c i _ n a _ k y a m a _ r a s h i n _ j i n _ d a d i": 2360,
      "a b i n _ t a k a i c i _ r a s h i n _ j i n _ d a d i _ m a i _ b a n ƙ y a m a _ n a _ k y a m a _ m u m m u n a _ m a f i _ m u n i _ r a s h i n _ j i n _ d a d i": 2361,
      "a b i n _ t a k a i c i _ r a s h i n _ j i n _ d a d i _ m u m m u n a _ b a _ k y a u _ b a _ n a _ k y a m a": 2362,
      "n a _ a l ' a d a _ n a _ k o w a _ m a t s a k a i c i _ n a _ y a u _ d a _ k u l l u n _ n a _ y a u _ d a _ k u l l u n _ n a _ g a b a": 2363,
[...]
